/**
  ******************************************************************************
  * @file    accelerometer_model_data_params.c
  * @author  AST Embedded Analytics Research Platform
  * @date    2024-12-26T10:56:35+0000
  * @brief   AI Tool Automatic Code Generator for Embedded NN computing
  ******************************************************************************
  * Copyright (c) 2024 STMicroelectronics.
  * All rights reserved.
  *
  * This software is licensed under terms that can be found in the LICENSE file
  * in the root directory of this software component.
  * If no LICENSE file comes with this software, it is provided AS-IS.
  ******************************************************************************
  */

#include "accelerometer_model_data_params.h"


/**  Activations Section  ****************************************************/
ai_handle g_accelerometer_model_activations_table[1 + 2] = {
  AI_HANDLE_PTR(AI_MAGIC_MARKER),
  AI_HANDLE_PTR(NULL),
  AI_HANDLE_PTR(AI_MAGIC_MARKER),
};




/**  Weights Section  ********************************************************/
AI_ALIGNED(32)
const ai_u64 s_accelerometer_model_weights_array_u64[4547] = {
  0xbe3803973e8214b1U, 0xbe975c00bd8d4569U, 0xbde92f36be8a0df3U, 0xbe827cbdbe03d0d6U,
  0x3e62f6a73e03c0c4U, 0xbc95f56fbe726cddU, 0xbe6a2ea3bdb8732cU, 0xbe033274bd18c4f7U,
  0x3e22d24abdb3275aU, 0xbe868829be4d92f8U, 0xbe6c2ecb3e03658fU, 0x3cdf552a3e35e137U,
  0x3ea23dbdbe1e54f8U, 0x3e3510933e3ffe6fU, 0x3e2d5a5b3e86cb15U, 0xbe9749cb3d26b724U,
  0xbe9e22853e73d563U, 0xbd53c2cabea4e11eU, 0x3e8354b53e1eb362U, 0xbea465a23d97557eU,
  0x3d614bca3e5091e9U, 0x3e1e885ebea4f911U, 0x3df7e48e3dd51410U, 0x3cb1d2edbe9a4167U,
  0x3e69cb1dbc8d2f48U, 0xbe6dec6d3e7efba6U, 0xbbe45cd93e398a6aU, 0x3e34a6ea3d9981ddU,
  0x3e6aaceb3e9ca1e2U, 0x3e5595d3be8102fdU, 0xbe809de73e088cbaU, 0x3d9105d9bdf81ae0U,
  0x3e72548b3ea581a2U, 0xbe6639573e31b9e9U, 0xbde915bb3e56c87cU, 0x3e61aabe3e431187U,
  0x3e8182c5be30064cU, 0xbe3d7d463e5b18c1U, 0x3e8b82283c914282U, 0x3e09a37fbe8a7901U,
  0x3e5c828fbd1714cfU, 0x3e69349d3eafc58cU, 0x3e4d2a1e3e893a8fU, 0x3dd0276b3c8ba1faU,
  0xbd964614be66761eU, 0x3e823d46be70a848U, 0xbd770a81be16611fU, 0xbe4f424b3c8d5fccU,
  0x3e6befcabe48db89U, 0xbcf918d6bd691ba4U, 0xbd8587bb3e8d30a7U, 0xbe5e8ce3be94e294U,
  0xbd9915ce3d45e564U, 0xbd7e06233dfae1caU, 0x3d96d766be91ca2aU, 0x3e25074abdcf80f1U,
  0xbcba187a3e3bbe8eU, 0xbe4410ac3c427ca8U, 0xbdd9e3d1bdbe9a72U, 0x3e1893f4be851d67U,
  0x3e61aa4dbe0be994U, 0xbe251355bd3092e4U, 0xbdd19d223e64c359U, 0x3ea717973e52d5d3U,
  0xbe8bb8d03e8d12eaU, 0xbe2e26cf3e527042U, 0xbe8fcc0f3d9e30ebU, 0x3e70c9ad3ad1dfbeU,
  0x3e018b4cbe7a0107U, 0xbe9eb7203dcac49bU, 0x3e652d283e5fe889U, 0xbdb18c9b3e7d75c4U,
  0x3e8247f33dce4ca2U, 0x3e42c7c5bdaffadfU, 0xbb33ab03bd4e8ce2U, 0xbe9bc9c83e8d7cc5U,
  0x3d254a323e2ad0f4U, 0x3e67fd3bbe346ecbU, 0xbc7ca1cf3e18005fU, 0x3e2afff03dce0097U,
  0xbdc0b2ca3e78eb7cU, 0xbe561d0a3d7f9aa8U, 0x3e2aa96d3de94f16U, 0x3cb726823e832508U,
  0xbc2ed785bca65178U, 0xbddd748abe204fa3U, 0x3c67457d3e91315aU, 0xbe899749bdb88b0dU,
  0x3e2e4294bdee6f2aU, 0x3e84fae3bd998c42U, 0xbe15f5edbdad5d69U, 0x3e8fd391bd073e0aU,
  0x3e5557fbbd5bf051U, 0x3d3258c93e83c14bU, 0xbe131c32bd285d2cU, 0x3e002249bd91a141U,
  0xbe9ec57e3c350990U, 0x3e7259f6be223ab9U, 0xbe0f3051bc4ea8eaU, 0xbe47e33ebe556f2cU,
  0x3d35a9cd3df12f74U, 0xbe2ce3d23e3e9aedU, 0x3e29d03e3e82237cU, 0x3e644d3b3d99d806U,
  0xbd8672b83e856366U, 0xbda85bcbbdf3f617U, 0xbea608423e3c1212U, 0xbdc65746bdcc83c9U,
  0xbe67add8be0b9f35U, 0xbe26290e3e07e8d2U, 0xbe474fea3e8cb26fU, 0x3d6dfb8c3e8002b1U,
  0x3bdf31e6bd7b6088U, 0x3e7ce5e83e938aceU, 0xbe393bea3e3d8271U, 0xbd864eb6bdcaf2bbU,
  0x3da607c6be527e1aU, 0xbe9eeb20be3e3a17U, 0xbc5108bdbc675b45U, 0x3e42f05b3e7989b9U,
  0x3e3adc313e3c0be9U, 0xbe4e3001bcfba62cU, 0x3e6a756bbe6976a0U, 0xbdf1da003dff40baU,
  0x3dc88973bd0e7ac5U, 0x3e2c4a8d3e6af9ceU, 0x3e10a6d4bddc200fU, 0xbe717ba3bd261975U,
  0xbd46e0babe5487afU, 0x3d816576be3b502eU, 0x3e08f668be47b106U, 0x3d9f3caebe4ac82aU,
  0x3d9917e43c817319U, 0x3c4c0128bd0e1abbU, 0x3d37cf1b3e8168cfU, 0xbe910b9bbe262861U,
  0x3e8a88893ddbbe03U, 0x3db442fc3e2877beU, 0x3e35c52c3e7e8c13U, 0x3e39c33b3e99d5b1U,
  0x3e48c09a3e71542aU, 0x3e040dbe3e29de4eU, 0x3e79e2fa3c97080dU, 0xbdcc6d86be3102e3U,
  0x3e95e1153dfd06afU, 0x3e074486bdac2074U, 0xbe2c8b633e8fa691U, 0x3d983be13e1c2f54U,
  0xbe8a5d3cba0d18eeU, 0x3d90a295be90b8b3U, 0x3e6c265b3eab69f0U, 0xbd618a1b3e556054U,
  0x3e4674eb3e4e7c41U, 0xbe2bd449bd6d4f03U, 0x3e151181bd8224b5U, 0x3d602090bd57d1b8U,
  0x3ddc3b84be85eb51U, 0x3dcac01fbe503fc3U, 0xbd05b89bbe160afcU, 0x3ca918593e8284f6U,
  0x3dcad412bdcb7f71U, 0x3e33de793e327192U, 0x3e9235683e906e0bU, 0xbe5a9e363e44905cU,
  0x3d1b53553d1e0439U, 0x3e912f123d3d1536U, 0x3dd55786be17cdbeU, 0xbbe096ebbe8a2326U,
  0x3e1d4fa5be98b478U, 0xbea07acebd761a83U, 0x3d4292913e824109U, 0x3c7dd94cbd637d2aU,
  0xbe49d468be67ce3fU, 0x3ca554cebe2dffffU, 0x3e0952e9be7b7a3fU, 0x3dd3bddebc223089U,
  0xbdf3d114bd6071e8U, 0x3e9479353e0a4408U, 0x3e49409ebc8d7b51U, 0xbd243dc5beb47aa9U,
  0x3e198ea03e42202bU, 0xbe06d3f43c95370fU, 0x3e6281383dee9a1cU, 0x3e898e953e91fdfeU,
  0x3e75d8753c99fc71U, 0x3d855a6c3d82fcdcU, 0xbe3184fa3e99ed53U, 0x3e0f1ae73e3c9d59U,
  0x3d89e1febe8f42b2U, 0x3d4d0c9e3e8c32eeU, 0x3e3b8bf63dacf422U, 0xbe02b43e3dcd7a4cU,
  0x3da80a773da9391bU, 0x3d91f40a3db6a7b4U, 0x3db404ed3cd2dbd2U, 0x3d27c3c03deef50eU,
  0x3dc772943df5183fU, 0x3d6b2de73dc1414bU, 0x3df2bd8dbd0f8ce0U, 0xbc6b45bc3da4922bU,
  0x3d8245a03da3782dU, 0x3db92c463dcb893dU, 0x3dc6fa293db31550U, 0x3dd0edd13db7339cU,
  0x3d6f3f793dd792a6U, 0x3dd933bd3d344203U, 0x3d62a23d3e0842bcU, 0x3d0aeb963dc79be6U,
  0x3cf5eba23d49fce9U, 0x3d47b2413dba724aU, 0x3d6339423db5771fU, 0x3de358093ce01468U,
  0x3dabbd6c3d77ef78U, 0x3dd160323db97133U, 0x3da115113cd33d5dU, 0x3da59d013dde734fU,
  0x3c8771013da04b1fU, 0x3dcb79713db65d7fU, 0x3dab1abeba1ae547U, 0xb98011cf3dedbdacU,
  0x3c9d51d33c7ddd59U, 0x3d97c4ed3dcdfb60U, 0x3da78a313c8838b8U, 0xbcbee61d3ddc4026U,
  0x3db844cf3d7ce296U, 0x3d953cec3d261ea0U, 0x3d9380103d4880a9U, 0x3d49c4b33d8be7b8U,
  0x3dfc9fef3dcbbb35U, 0x3d15833fbb119ca0U, 0x3df4664f3da318f2U, 0x3dd9b3963b6f0f56U,
  0x3dc1e8a43d441deeU, 0x3d8935453d984787U, 0x3d0560c23dada839U, 0x3dc8e3893ceb1e69U,
  0xbccd77f5bd001082U, 0x3dddbee33de37c4cU, 0x3db1bbdb3dc8dd71U, 0x3dc452073dabd7aaU,
  0x3db7c90d3db948b8U, 0x3dc4f0f23c9e92f6U, 0x3d9dcebd3dc9a5ddU, 0x3d68a11b3d8714a3U,
  0x3ca814793df5696dU, 0x3bfc69323d9e1a52U, 0x3d91ac873da6de05U, 0x3c8cebc23d8905b3U,
  0x3de67ab43da3a4c9U, 0x3db604403c0a36c6U, 0x3d9e84163de71fc5U, 0x3cf8049b3cea43f2U,
  0x3dd9cf183bdf5aaeU, 0x3dc105c23d5d381cU, 0xbafeba1d3d886f0cU, 0x3df9de773daa9da8U,
  0xbe66163abc45710cU, 0xbd8ad8d2bd220155U, 0x3cf3b169bdc0f269U, 0xbc883c0e3e36aeacU,
  0x3d914c4ebc8521c5U, 0xbe8b8d693e55544eU, 0x3cdf84eabe12457eU, 0xbe24327f3e62751fU,
  0xbe4a57363d277755U, 0x3d2573703de44e89U, 0x3e54c947bdd1211bU, 0x3e8d68d73c7ca017U,
  0x3e430e2d3e5590a5U, 0x3e1cdc343c8fdb5dU, 0x3ccf0b093e01d588U, 0xbe3c17473d779139U,
  0xbdb2dbec3d58aadfU, 0x3cb8ea373e03202dU, 0xbdb13f673dd9a2c0U, 0xbda7c158bea2274cU,
  0x3da34073bd4c0623U, 0xbe76edddbcba3dedU, 0x3e5086a43e0cdc40U, 0xbe62aa02bdb18540U,
  0x3d8c4c043d9d5d70U, 0x3dad33113d3ca434U, 0xbe8546bf3dc5b993U, 0xbdd0f6e63e38c327U,
  0xbe024574bd53e975U, 0x3e6839ef3ba1d0feU, 0xbd47cd82bd545b67U, 0x3d79de0c3d9f1c8cU,
  0x3d9d3139be995c4aU, 0xbb919e28bdc4689bU, 0xbe5fe904bdb9ff38U, 0xbe838b2fbd960eb4U,
  0xbe00f7523e1a7318U, 0x3d446b14bbfd10ceU, 0xbd956f193c279757U, 0x3e57c140bdf54f6fU,
  0x3e293bb5be1e62b8U, 0x3d8d48883dc5a898U, 0xbe6b248cbc81953eU, 0x3db8ab5fbe031011U,
  0xbbf05bed3cd33b8dU, 0x3da5b53a3df1dc8aU, 0x3e2ca2e03e651808U, 0x3d93aebd3cda6ac4U,
  0x3d0429e7bd2d40d2U, 0xbc8c122abe2fa419U, 0xbd85face3ce8d996U, 0x3df82205be998286U,
  0xbe6c6a97be083afeU, 0x3e70c009be0ad6ddU, 0xbda1d74e3db0a7e7U, 0xbe7b429ebe34ddc7U,
  0x3d99b51cbdcbf776U, 0x3da97c01bdb64345U, 0x3cc64336be212a6dU, 0xbe486e13bce54063U,
  0x3e48d55a3c18995fU, 0x3e4e2f7e3d1eab92U, 0xbe16d154bd90bf2cU, 0xbe7e00923cfe2b15U,
  0xbe7f3b5d3bf843b1U, 0x3e047c2b3cb5592fU, 0xbdd63801bd2210e1U, 0xbd64b6c4be041b33U,
  0x3e485ff9bde4b773U, 0xbe0fa7b83dfdb40bU, 0x3d0c0c93bdda9ddaU, 0x3d82a54e3dfd7a75U,
  0xbe3f181c3e34c962U, 0x3b9dcacf3e8087acU, 0x3e9366233e21f0c9U, 0x3def77a93dc1a23bU,
  0x3e0346403db059b0U, 0x3e8da4113dd8569dU, 0xbe27868d3e4e9e85U, 0x3b3df0bebe007685U,
  0xbe286d6f3d90a6c2U, 0x3c25d7a6be49df38U, 0x3e034a35be2671e7U, 0x3dd004793dd8d102U,
  0xbe078543be23dd3bU, 0x3c8447853dd3822bU, 0xbb72e728be53aedbU, 0x3dd2e0803e1d2ec3U,
  0x3e65c7953e111c46U, 0x3cd26e943e0db179U, 0x3d86b8033d2262a0U, 0xbda2164b3e290287U,
  0x3d9513bf3bfdb03bU, 0x3e3e96c2bde7b014U, 0x3e6d0106be1ae8d3U, 0x3d95abfc3e6bf7b0U,
  0x3e1a295bbdf458e8U, 0x3e201610bdabbcefU, 0x3e342a9e3dc061a3U, 0xbd8fc3ebbd8e074bU,
  0xbd3ad9f33d8e37faU, 0x3e8c0f083d6fe92dU, 0xbe2224103b1fec64U, 0xbd780327bd480bf2U,
  0xbda4ebb33d914c15U, 0x3e11c7be3dce8279U, 0x3da05823be4ce0e9U, 0x3e163c713dbc23b4U,
  0x3d5bfd7bbe240488U, 0x3e017d35be37acc7U, 0x3e5f37d6bcc2ff58U, 0x3e0e4e9e3e458affU,
  0x3d95b8ac3dd7276bU, 0x3c73bf743e0221c2U, 0x3bde4f413dd3df5eU, 0x3e3410c8bdf8fefbU,
  0xbcec00afbdce9b04U, 0x3dedfda8bddd2a71U, 0xbd318befbc818621U, 0xbd987e3d3e12b8a3U,
  0xbdc474bfbe62853bU, 0xbe78f48fbe1e206bU, 0x3dd049963d58d856U, 0xbe14a3ba3d625913U,
  0xbd0de91e3dd044adU, 0x3e56be6e3e70f8f2U, 0x3e281d7b3c78466aU, 0x3e35534a3d77a266U,
  0x3e4fb6913da89e9dU, 0x3e3800723d5475aeU, 0xbdae3e00bd80fb34U, 0x3e57142cbdc762a1U,
  0xbda02bc5be3aeb3fU, 0x3e33b2b23c77d166U, 0x3e07180abe24ace2U, 0xbd7bcd6d3c01b209U,
  0x3ddc7521bd385c10U, 0x3e36d067be578303U, 0xbe62c43e3cbecabfU, 0x3ddb657a3cca52f3U,
  0xbdbb7631bdbf83aaU, 0xbdebf7313e70e0e5U, 0x3e1b044cbe49603bU, 0xbdc756d53e5fe70eU,
  0x3e556638bd399da6U, 0x3e52ba5d3e3b6630U, 0xbd0213ca3de4cec9U, 0x3e1238e8bdc9fc26U,
  0x3d7beebb3e004d58U, 0x3e42955fbe28acddU, 0x3da29b863e70adaaU, 0xbd6e023f3e4ec14fU,
  0x3dc680563b86789dU, 0xbdba35673d9324cdU, 0x3dee25a1bdb93214U, 0xbdc4415d3df3eea4U,
  0x3cc79cddbdc07b4cU, 0x3d7978c63e6ef47aU, 0x3da5789c3e6c76e2U, 0xbb4d57553ded20f6U,
  0xbdb19a1a3d561e6cU, 0x3df1c2f73e6bcd16U, 0x3d5ba820bd94a1e0U, 0x3e130c80bd455400U,
  0x3c55445e3e7cf314U, 0xbe121eb2be02109fU, 0x3e4aca263cc9187eU, 0xbc5a514bbdadb56bU,
  0xbdc8ed6d3dbb0b68U, 0xbe5c0079bdcaefbcU, 0x3df7f8053e1e3ac4U, 0x3d81ed133e482b18U,
  0x3e0593c6be11630fU, 0xbe0582883e0916aeU, 0x3b3fe6383d90d727U, 0x3c5ed554bd0102e5U,
  0x3e40b4f23c3b9fe7U, 0xbd631fbe3da10aabU, 0xbe25920fbd346bdeU, 0x3c9651b8bc8f5499U,
  0xbddd95e33e30bb8eU, 0xbdf26e7f3dc84408U, 0xbd1dbf70be44d599U, 0x3d9c70da3d1d13d4U,
  0x3d494bf43d971329U, 0x3e1132e5bdf87b31U, 0xbe04aab93d5c6571U, 0x3d7c4c4bbdbcf02fU,
  0x3e050e85be07c316U, 0x3db5a94f3d8d2132U, 0x3dc915afbe0d0b6bU, 0x3e0dc0bbbe242012U,
  0xbc86853f3e39d282U, 0xbdae550a3dc85f0bU, 0xbc757ee3be679fe9U, 0x3c27eb6f3d44fc36U,
  0x3e840aaf3d8e2e57U, 0xbe363fb6bc38cab5U, 0xbd933b283e48434bU, 0xbd7f8c24be2d2c2eU,
  0x3d77091ebd9877a7U, 0xbc0da38d3da2fc3dU, 0x3b9d76333dc936e8U, 0x3e124ad73d31a4fbU,
  0x3e7b9b0b3c7621ecU, 0x3deea506bdf9a6ecU, 0x3d9695abbd83c4d6U, 0x3df07624be812fafU,
  0xbe50eb32be11ff40U, 0xbe26dae7be479705U, 0x3e691e84be36bd9fU, 0xbcd82bec3de19b2bU,
  0xbe3ee4f5bdd1ec61U, 0xbe3c57d4bcb57639U, 0x3e2983c53ab21ecaU, 0xbdc120dfbc20a2a2U,
  0x3e00bcedbdf483d6U, 0x3de8317dbda0049bU, 0x3e0a6eb93e17bf2cU, 0x3d1b69213e43e608U,
  0x3d649e61bdc71a59U, 0xbcdabb293d8c1ba1U, 0x3d53dbc0bd3772c4U, 0x3d3be53d3e096461U,
  0x3e640b64bb101385U, 0xbe2b6fa5bcba9558U, 0xbe050d0cbd0928d7U, 0xbe41e2493e1c3017U,
  0x3dcca6acbdb26d6eU, 0x3e824b163cd17a66U, 0x3e55172ebc98db75U, 0x3e70b950bb1edccbU,
  0xbd93e3583e2c3bd9U, 0x3dd95e333d7210acU, 0xbe203755be31ab41U, 0x3e3aaf68bc119a09U,
  0xbb7eb7be3a26d055U, 0x3dd3ca3cbdad9ce0U, 0xbcd83cfa3e69c302U, 0x3e64fff63d28d6eeU,
  0xbd4230443e0582f3U, 0xbe357ee4bd9f819eU, 0xbd560bc53e2e8911U, 0x3e92397dbbc8e6eaU,
  0x3d873dff3d8e698fU, 0x3e34763b3afbd60aU, 0xbda661493e8207a9U, 0xbe0e0e1bbe480aacU,
  0xbe611fd6bde73970U, 0x3c8ab991bd6ae517U, 0x3e1988e1bd4b57a0U, 0x3c5365303db171b5U,
  0x3e7410933e22b0ccU, 0x3e6024a73dd525f6U, 0xbdc360003e7eb05dU, 0x3d8bc3393e21006eU,
  0xbe6565e1be670feaU, 0xbe6bd3f8bcf0a73eU, 0x3aa98d3b3db0837aU, 0x3dafdbff3d3c324fU,
  0x3e0ef87d3e1e972cU, 0xbe2cb911bd95cd62U, 0x3db5bebabe0b3e6bU, 0x3d2b5511bda69a80U,
  0x3c6a5bb53e814542U, 0xbcbeed0a3e2d41e3U, 0x3d94f49dbc9dad91U, 0x3e57b2a23e282ed8U,
  0xbb06799c3e476686U, 0x3e0c50f5bdc7aa89U, 0xbe8c07153d80e6c2U, 0xbe21eef83d8c059cU,
  0xbb8cfd54be1b3ff7U, 0xbdf2b56f3d37fdf2U, 0xbd85f35ebe522dcbU, 0x3e3153c3be5c75b2U,
  0xbd9b0af5bd1c7e4cU, 0xbdbf65c23e152894U, 0x3b6143e8be391275U, 0xbc483e523e54834fU,
  0x3d68c28c3bae31ceU, 0x3e4f05983ceb66b0U, 0x3e4033673da67ccaU, 0xbda0dd283d2656b2U,
  0x3dde836abdcc076dU, 0x3c9837edbe6fc4d1U, 0x3d14d2c0be5ba5feU, 0x3ce76a8d3da54476U,
  0xbd8b4753be6537c1U, 0xbd275b81bd9773c6U, 0x3e212b94bcddc576U, 0xbdf37e3e3e41bb07U,
  0x3c0758febdd81f7bU, 0xbc99054cbe19680dU, 0xbdf32e92be25e927U, 0x3dd47194be06fd1aU,
  0x3e31aef7bd9177d7U, 0xbce676be3d98293cU, 0xbb1a3fcd3e13d3dbU, 0x3e0c0f073e070899U,
  0x3dc81a4b3dfdf052U, 0x3d37e5ca3dd8af6fU, 0x3c3166aa3d846c0bU, 0xbe25f0b53e20a51eU,
  0x3d6fc252bcc05f59U, 0xbe1c16683e08f83fU, 0x3e8f72543e29fdf1U, 0xbe1d436fbe051cb9U,
  0xbdbf06ef3cbc5d52U, 0x3bbc8a8dbe2a1567U, 0x3dfb080e3e33bf96U, 0x3d50bc453dd01e85U,
  0x3e6cf2c83e0b5446U, 0xbd652faf3e241de1U, 0xbe11752a3e1ce3bcU, 0xbe09a895bb137d79U,
  0x3e5b9ce8be13147eU, 0xbe107ba53e0be646U, 0xbb4fb5e7bdfadd70U, 0x3dde65f63a504449U,
  0xbd9784673dfc78bfU, 0x3c9b30033db06147U, 0x3e2bf3fe3e0c8201U, 0xbe064fa43bafc37eU,
  0x3db8e17a3e668400U, 0xba873a523e3cb65bU, 0xbdcacdaa3d994cabU, 0x3da0ba6ebde66367U,
  0xbe409c6b3c9b653eU, 0x3c8fc8923dd5647aU, 0x3e348a00bdb20d84U, 0x3da0dbf53e429f5cU,
  0x3d97ac87bdec19f6U, 0x3df024d53d8c881eU, 0xbd97b19abe20c9f3U, 0x3ca8cb41bdd1e945U,
  0x3dd3ba8bbe39efa9U, 0x3cfc38933dfca487U, 0x3e21411bbe00fab4U, 0x3e15961abdd07166U,
  0xbe8165edbce9e9eeU, 0xbe4329a53e444d72U, 0x3dba5ac6bda49ad4U, 0xbe19d89b3e81fadbU,
  0x3dcea293bdcafad5U, 0x3d84bd05ba5b1f19U, 0x3d50815dbd6b213dU, 0xbd9432673e85cc81U,
  0xbe34703cbd45a3b5U, 0x3e37ebc43d99641eU, 0x3cf777b13bc149aeU, 0x3e5c00a3bd8748ccU,
  0xbdd740bebd3bfc39U, 0xbe0f63f0bdbeef77U, 0xbd82fc713e0141ccU, 0xbdfc5dcdbc396746U,
  0xbe806bb43d2f75b0U, 0xbc9e2ec3bda5b9f7U, 0x3e509ddb3dff5854U, 0x3d3ccef3bb6aaf67U,
  0x3e54ac2abe330552U, 0x3c114a95bd64845cU, 0xbda273ecbdbf8970U, 0x3e192972be165529U,
  0xbc3bcbc9be4f7e2bU, 0x3d2701f43dd80041U, 0x3e5843763be3d75eU, 0x3d42c645be099646U,
  0xbe8e9031bde89edeU, 0x3d776daebe266b3eU, 0x3e2894ab3d0ab893U, 0x3e62b971be367c19U,
  0xbda06f773d913831U, 0xbd8619693dcf284bU, 0xbcf1a9db3deedbd7U, 0x3d3ad0a2be8b821dU,
  0x3cde3b2cbe813494U, 0xbe0389d93e1ecfd3U, 0x3c9f6fd43d74a3dbU, 0xbd8d4a42be32ac73U,
  0xbd82e41c3d8ce409U, 0x3e16b5d9be4faf53U, 0x3e2f67c43e6efd06U, 0xbe6f2a013d8fcc5dU,
  0x3c4d5028bd5ccf04U, 0x3e3e3ea4bbd3ffe3U, 0x3e06db5f3e18aed1U, 0xbdd8c8eb3df13de6U,
  0xbe220bb1bdbc9c7eU, 0xbc8dc83c3e658c3aU, 0xbecd32ae3ddd9a29U, 0x3d20ee1dbe97876aU,
  0xbd07c042be532142U, 0xbcee6ef43deda1b2U, 0xbe70be7e3d8b25e2U, 0xbe6489e3bd89159fU,
  0xbe331326be55320dU, 0x3cd16a89bd1e98d1U, 0x3e24b3bc3b6b9ebbU, 0xbd6f91cf3d1e57a3U,
  0xbded1bb53d9d3309U, 0xbe02dcba3dfadcf8U, 0x3e1e9370be4ba6c3U, 0x3d5b7edebd02901cU,
  0xbd6049fdbe249906U, 0xbe1fd315be15c35fU, 0x3d98bbab3e12e0e5U, 0x3d87cd1b3e50c184U,
  0x3e03a1053e40ee0cU, 0x3e6c541d3e0112ccU, 0x3e1546513e405e8dU, 0xbdd58ce8bd8aa874U,
  0x3d6003e8bd1013a9U, 0x3d54ad553d5531c6U, 0x3e33ea2e3e30443dU, 0x3ce7f8bbbd862b10U,
  0x3dda8dbc3e1b5909U, 0x3e443bc6bd17ad9aU, 0xbc85235cbe0b4751U, 0xbd9e4bfdbd980a2aU,
  0x3b81e72f3d9dc2c8U, 0xbe4d840a3e1550d2U, 0x3e7dcc963de5b514U, 0xbdcf5c943e2e5cd8U,
  0xbc879ea5bc8ec642U, 0x3d7029e13e398199U, 0x3e49ae1abe5ef3aaU, 0x3e14d4293d95f2f4U,
  0xbd10866a3da0c09cU, 0x3e2015483e537fc9U, 0xbcc680d0be090697U, 0x3e13ec9d3d339444U,
  0x3d78bd9f3e32f7ddU, 0x3d68d283bd25b57dU, 0x3dbc97fabcc9f20dU, 0x3e6abf463e872bc6U,
  0x3e6b70c4be2aa8a3U, 0xbe06fb40bda54ee1U, 0xbe089fd6bdd12bf4U, 0x3dde15323d2cfea4U,
  0xbd8510bcbe137e24U, 0x3e20637bbde2065eU, 0x3dae62a6bec786dfU, 0xbcbd1ebe3e6f93f6U,
  0x3e1d0b833d004a1bU, 0xbd6834d5bd860310U, 0x3e493640bcc68eb6U, 0xbd93ff7e3d022994U,
  0xbd2cb5893e80a0b0U, 0xbcd7dd6f3e315381U, 0xbb8a82eb3e018142U, 0xbe7d84a03e83da26U,
  0xbdeab9863da3b48eU, 0x3de1fc1fbd25ddfcU, 0xbe7141673d8a0d0fU, 0x3df20a54be260ab3U,
  0xbdb35ac4bd81c58eU, 0x3dac61a73debd171U, 0x3ca8436a3caf9598U, 0x3d14cb253d0f5635U,
  0xbdfc6dabbe7467d1U, 0xbdb9a00ebe218f59U, 0x3e0bcd5b3cc7ef22U, 0xbddb61643d747d5fU,
  0xbe6e386db6b88d80U, 0xbd60b5d63dd02a47U, 0x3e5a50893dad76c9U, 0x3ce3e0953db57471U,
  0xbe77e39d3d275213U, 0xbde32d993e082806U, 0xbbed503e3e3097bfU, 0xbb93ac313e0eb293U,
  0x3e151c943ddf1bf4U, 0x3e888b9e3d2a20b5U, 0x3e6024983ba23111U, 0x3da36f343dd367ffU,
  0xbe8e36113e215438U, 0x3dc711643e32197cU, 0xbd8222fc3e59948eU, 0xbda40cf7bc8c1904U,
  0x3e01b5d6bd0ba0c2U, 0x3db175423da6f29bU, 0xbbedef9d3e3ebb23U, 0x3dec4cc33cc31014U,
  0x3d741c06bb7028fcU, 0xbd2d874d3e1b362bU, 0x3decc25e3e5c6afbU, 0xbe2928cd3e82f14bU,
  0xbda6c2b43e408ea1U, 0x3dc4067c3cd0d973U, 0x3de73d54be645610U, 0x3e49fd36bdebf421U,
  0xbe0a9880be0ca262U, 0x3e3c9f053d50947fU, 0xbd532b963b1404afU, 0xbc6d2d803e5b3cd6U,
  0xbd6983363dfee22bU, 0xbd61e2ce3e1e6aa8U, 0xbdcf47e7bda6725bU, 0x3dac2b62bcf1524dU,
  0x3d3d29b3be214c8fU, 0x3ca884b43e2c818bU, 0xbe5e5d32bcab1e65U, 0x3e7b3ae73c810f1eU,
  0xbe8d64c9be396ec5U, 0x3e45423e3d00b972U, 0x3dc305ccbe9456a9U, 0x3e8a80473e4ed2a2U,
  0x3e282a6abca38779U, 0x3e246b49bd833d07U, 0xbd8170043d98f5ccU, 0xbdb4be6c3b39b05bU,
  0xbe1c391ebc7d63b0U, 0xbe10135a3c6f6b09U, 0xbe0025a9be2f3282U, 0x3dfe2b5fbdf54e09U,
  0x3dacbd1a3b4e3bd4U, 0x3d854d6c3dba42c0U, 0x3e2297573d658e20U, 0xbde1ac753c9cfb7aU,
  0xbe0950a43d2fce47U, 0xbe321182bde84c91U, 0xbdb6d707be1dc092U, 0x3d28e978be047c18U,
  0xbd8cf9453d21baadU, 0x3d049bc43d9685bcU, 0x3dc6c09a3b8a1a8dU, 0xbe32aca73dac0734U,
  0xbded54723cc46dbeU, 0x3e19e2753e1477a2U, 0xbe2b6c3c3ca281f2U, 0x3d0e69353e260c8bU,
  0xbe0a71b1be062b6fU, 0xbe420b0c3d6a7cd5U, 0xbd9a3bc43ab23380U, 0xbe2edc16be29cb7aU,
  0x3dc69ebabe325ff6U, 0xbd3ce2f13df7a815U, 0x3da0f38a3d45c244U, 0x3e249c4dbe33c10cU,
  0xbcd4888e3e0a70f7U, 0xbe3c763d3da344c2U, 0xbe2f101a3de6809eU, 0x3dedc292bd9ccd15U,
  0x3d04ef04bce4ae40U, 0xbd12a7e4bc681ca1U, 0xbe26bb783db919e3U, 0xbde3c8cabe25f9b2U,
  0xbd37126c3d9d4fbfU, 0x3e1e2182bddb3c4cU, 0x3c225e49bd4d4cbcU, 0x3dee925f3dec236aU,
  0xbd69abdcbe2c5442U, 0x3d5b3f083e32f093U, 0x3d382062be309e70U, 0xbdeedce43cbdbf30U,
  0x3dd9ddf53ddd0a09U, 0xbd947812be0fa7c5U, 0xbe2aa9d1bdd92c45U, 0xbc8deeb0be1e4cffU,
  0x3de34fc23d2b5115U, 0xbe3564c4bdd8d5d3U, 0x3dd1b890bd30a646U, 0xbd42a58c3d21bfb0U,
  0xbe136447bca2e1c9U, 0x3db7c1683dd75b56U, 0xbd6d6bba3e263417U, 0x3d4a7a54bcbd1b7cU,
  0xbe27744d3db942bbU, 0xbe26d4a8bd5106c7U, 0x3e31ffdf3d439449U, 0x3b7e2d80be157b11U,
  0x3dfa5abf3e00613fU, 0xbe3d8301be3948f5U, 0xbe2ffb7a3e02511fU, 0x3db6764d3de6255bU,
  0xbe145a473d0807b6U, 0x3e670fa13d76b60aU, 0x3db2a1a1bcc37c18U, 0x3e0210dbbdf3cb17U,
  0x3d5c2ebabe523b5fU, 0xbc670c1ebd55d21cU, 0x3e04d6d2bd59b3ceU, 0x3e48857ebe1d7d88U,
  0xbe0569bf3e04a475U, 0x3e0b89a7bdd2e5e8U, 0xbd8689adbe01bf14U, 0xbe49ce45bdd7ae95U,
  0xbd7dfd6a3dd2ca4fU, 0xbc452406bdffb8f6U, 0x3e51fe2d3b44f89aU, 0x3d8ef49a3e00ce72U,
  0xbd3afc463d0f9a07U, 0xbe0a371cbe42fb71U, 0xbdcb5f94bd8d6bc8U, 0xbd3a948abdbaa069U,
  0x3e0aca35be39202cU, 0xbd26c79ebb6e75cdU, 0x3cf40accbbfffd92U, 0x3e29e9fc3def22a6U,
  0xbb6ab44c3e1f69d5U, 0x3df1f9a93e0bb614U, 0x3dacce05bd4c9cbbU, 0x3e3962a13e0cdd3bU,
  0xbe3eae3bbc949544U, 0x3e035d00bd889a01U, 0x3e52be043cb443f8U, 0x3d96f31ebd228609U,
  0x3e648319bd94de11U, 0x3e477fddbae76518U, 0x3de00ee13e140e61U, 0xbde2a1cb3dbc24adU,
  0x3d6957bfbd219d5aU, 0xbd806af13e0794ecU, 0xbe3e60673e400cf7U, 0x3d4d62cd3cf02feeU,
  0xbe79f73b3e49c564U, 0xbdc4bdaf3dae6cfcU, 0xbd19e123bdcf8812U, 0x3e3aab0b3d62f532U,
  0x3c937c79bd9ef133U, 0x3d77a185be60ad26U, 0x3d896f683e45b43aU, 0xbd880be43dad9731U,
  0x3e24d2d43d8ccbe2U, 0xbe029a693e7795a1U, 0xbd86b1213dd3f866U, 0xbda62ca5bdf0a8fcU,
  0x3da03fd53dc5b991U, 0xbe0ed7993cb082caU, 0xbe5285223dbae4a9U, 0x3d209e143decca02U,
  0xbdde0aebbdd67965U, 0x3d502bb73dddf2a2U, 0x3c0574433e06d0abU, 0xbd75ffab3e464b87U,
  0xbc86e9aa3d9179f8U, 0xbc8b07533e24d932U, 0xbdf51a153e012429U, 0xbd8e47a73e33608dU,
  0xbe24cfbf3e4bc424U, 0x3e13231b3dd120d7U, 0xbdbb269fbdeeb24aU, 0x3d50000f3b7c2d96U,
  0x3d9bc7a7bda7d6dbU, 0x3b78858b3d7afdcfU, 0xbc24d8303e386161U, 0xbd409c24bd9dc1a0U,
  0xbd8942253d83777dU, 0x3e79702dbbc1d779U, 0xbe1644a2bc990ba7U, 0x3df0c994bd4d4ecfU,
  0xbe5136c4be07b42cU, 0xbe07684f3d5c3fb2U, 0xbb070f913e42a184U, 0x3deed91b3de059bcU,
  0xbd3b0a033c3ae1edU, 0xbc900c5dbc46add2U, 0xbcf71871bccbefefU, 0x3d5973fdbd4f11d7U,
  0x3d4d1bf8bd837858U, 0xbd3665ce3ceb6d70U, 0x3dc1c198bdf651d9U, 0x3d64f8be3e41d6deU,
  0x3e74a6b9bd7fbe3aU, 0xbe110cefbcaee5b9U, 0x3da2a4a03e78f598U, 0x3de918113e3124e2U,
  0xbe2f828abcd4157eU, 0x3d718a363d9ed566U, 0x3de4599bbd86a421U, 0xbe655e6a3e32832eU,
  0xbae654783e1b5aeaU, 0x3e0a06f73d7aa671U, 0x3da2b0d93e54ed15U, 0xbe0d091abe10ce58U,
  0xbe5c4f2fbe176ff4U, 0xbd1dc7d2bcf8f7c5U, 0x3d89e04c3e6336f7U, 0xbd2c06d33da6d2cbU,
  0x3bf219a13e350b12U, 0xbe1742c13dac720fU, 0xbe005d30be2fd3ffU, 0x3b496a1fbe15e6baU,
  0xbd8e310d3d48816bU, 0xbdabb475be60f6c9U, 0xbddfe5753e4db689U, 0x3e25e8a23c9345bdU,
  0xbde7a7883e0924edU, 0xbe2e40523ccb0003U, 0xbe46dc7c3d7a2a52U, 0xbd478e2abdf1b3a7U,
  0xbde194e9bd706632U, 0xbd0fa80e3e36d73aU, 0x3d93b0d73d7aaee3U, 0xbd95ff2a3df5c03eU,
  0xbd82de85be525478U, 0xbd897d1abe19d513U, 0x3e21cb36be28225aU, 0x3db2f3623d2a53b7U,
  0x3db79571be1a5430U, 0x3e52a1773e101e82U, 0xbd8a511fbd365fa0U, 0x3dec99b3bcacef4aU,
  0x3d80604a3e3932d3U, 0x3e3450c8bd5dc6daU, 0xbd8fe8babdc6bdf7U, 0x3cfb9c24bd6c8064U,
  0xbe586ba2bd2e81aeU, 0x3df406273df6d0f6U, 0xbbfae1edbe3c7c52U, 0x3e530b22be40dcb4U,
  0x3d74d47abe72b3acU, 0x3e084e603e05b056U, 0xbe887b8fbd8019faU, 0xbd25a1823e698bcdU,
  0x3e05266cbe7427c4U, 0xbd9ae5153da59a6fU, 0x3dfb860e3d8f9237U, 0x3db959f4bda1d045U,
  0xbd148df53d3f6edbU, 0xbd8611083e6d8072U, 0xbdec35e0be2cf75cU, 0xbd1844e73e0d8276U,
  0xbe3501ffbdb798c2U, 0x3d1bf71bbe56b5baU, 0x3e632bb73d9f9cc7U, 0xbc4e1897bd323dbbU,
  0x3c9ff8a8be17b5fbU, 0x3e0244bc3e61bc15U, 0xbe4e21f7bdb38bd0U, 0xbdffb5cf3e4a42e0U,
  0x3d856eea3d63405fU, 0xbdc0c9cfb9b0da71U, 0x3ca6b6363da9507bU, 0xbd84ef45be221fc0U,
  0x3b9931003e2193e4U, 0x3e0ade0dbd3d9010U, 0xbe0231473d885da0U, 0xbe268f9fbccd40aaU,
  0xbdc32a7bbca1c547U, 0x3ae7dd1d3dabb83cU, 0xba286d1a3d1f9effU, 0xbd80926a3e4db31fU,
  0x3dfb71ab3c587fb6U, 0xbe9dcf163e655754U, 0x3e6f5718be01faf9U, 0x3cdb3126be0c2883U,
  0x3e0dc7c2bd7b7ff2U, 0x3dce41e83e81052aU, 0xbe8ca715be46ab86U, 0xbc9155e5bd89572dU,
  0xbde0fe4abdaff781U, 0x3c898846be40c45cU, 0x3d0b1cd3be53b4e1U, 0x3d4172d73c9c482bU,
  0x3dd7d9bb3dce338bU, 0x3dbadd76bdc669feU, 0x3c0d2c5d3bec558dU, 0x3e35464bbdf5fc31U,
  0x3bfd9e53bcd278b7U, 0x3e58753bbdb2b256U, 0x3e298acebe79b980U, 0x3dc5b6b53b30b020U,
  0xbdeb97cebdc47e62U, 0x3deea247be087526U, 0x3e5cbeeebd5588d8U, 0xbe048b8c3ddaa002U,
  0xbe9b84a8bd992384U, 0x3db09f1a3d7f46d3U, 0x3e5e8b1fbe4545bcU, 0x3d56e6523cf623b7U,
  0x3c846c1dbdae06ebU, 0x3d2cc06d3e42c4a5U, 0xbe66068cbdc9b4e1U, 0xbe0b4ecfbe505733U,
  0xbe0d54fc3e8182a2U, 0x3e6d422d3dd92c50U, 0x3e76d166bd91152eU, 0xbdc01c343e6dbc40U,
  0x3e5a30503d4d51ecU, 0x3e5e8cbebd695283U, 0x3d4f2650bd608075U, 0xbcd374e73cf83c4fU,
  0xbd480b46bdf351b0U, 0xbe4341b5be2fd006U, 0xbdb9b42bbcd4f1dfU, 0xbd4d89eabd359b12U,
  0xbe8e7a8abe3fb821U, 0xbe656838bc92234aU, 0x3e5438c43ddd27f0U, 0x3e3265f03e8bb62dU,
  0x3d87bc20bc38e9d7U, 0x3e4b00253df17ee7U, 0xbddb80cb3d996882U, 0x3deba4fc3d42836fU,
  0xbe426de93b603dc8U, 0x3e19af96be32bc3cU, 0x3e762f7abe38d7adU, 0xbb1a4bad3de627a9U,
  0x3cb2f07cbe55aed1U, 0xbe28766f3e42aa52U, 0xbd7dfa9d3e27e298U, 0xbd8392c1bdaad797U,
  0xbe5b1bd83e3a6b6cU, 0x3dd06c47bdb1fd84U, 0xbd777bdabd8df693U, 0x3e3d31cfbe04c790U,
  0xbd4dd5943e0febb1U, 0x3e2825a53e5bcb5eU, 0xbe83fef03d20dc41U, 0x3e929d2bbe08b1eaU,
  0xbd30a614be0c8546U, 0x3e2306aabd826abbU, 0x3e208e343e7bbcc1U, 0x3d0a39803cbde49bU,
  0xbe5420923aa0c864U, 0x3d6c151abdc2797fU, 0x3c375c323e784489U, 0x3d78b60c3bb2de43U,
  0x3ccb9390be5ef475U, 0xbd40c3443e3154cfU, 0xbe2d4e0fbca8deb7U, 0xba55ba6dbe3f0409U,
  0xbe6ce04cbe724350U, 0xbe477ad5bc980293U, 0xbd3c84a5bdc978c7U, 0x3e351570be7211e0U,
  0x3e46f9203bebe3c0U, 0x3c5bea1cbde0b1b3U, 0xbd85484b3e50aa18U, 0x3d6b48a73e3a9170U,
  0xbe18e3f3bbdf874dU, 0x3e23fcbcbe880fd4U, 0xbe64a8da3a652ffbU, 0xbd5c508bbe41fab4U,
  0x3c8018213e2e0037U, 0xbe144c40be2ea536U, 0xbdbd0de13d3d2293U, 0x3ce0588f3df3016bU,
  0x3e1e43d13c28027eU, 0xbd567cf93bad4f5eU, 0x3e7834e73e285cc5U, 0x3e1ebd29be183473U,
  0xbdc755d13d4200e3U, 0x3e40d473bc3658d0U, 0x3c3ba6d63e03d4a9U, 0x3d4a1daf3d987e47U,
  0x3e2cc1203e313fc8U, 0xbdacb721be4852cfU, 0x3e7716d23dce2e18U, 0xbde7dd9d3c311045U,
  0x3dc6dad93da44c66U, 0x3e456b57bd07b74fU, 0x3c836e9cbcadf3e5U, 0x3e7015fd3d480f95U,
  0x3e084617bcda2629U, 0xbd62a9d3bccced4bU, 0x3e699d3e3e298f86U, 0x3daf3babbd7ad113U,
  0x3dea582b3d6c7552U, 0xbd144e65be3bcfb3U, 0x3e27a9a33ce08c72U, 0x3dd3863b3e3fffe2U,
  0xbca8d203bda5bb00U, 0x3d8d8febbda3ab1dU, 0x3e40979b3df7ae21U, 0x3df9a9dd3cdfe34aU,
  0xbbf3d41ebe7479dfU, 0x3cc475f6bdfa8e58U, 0xbdd4278f3e453a2cU, 0x3e54990a3dc185f7U,
  0xbdf1ea1f3e6dc7aaU, 0xbd9d47cd3e3eb52aU, 0x3b03494a3c2af86aU, 0xbde75eefbdfdfcefU,
  0xbcb40c17bdfdfed0U, 0x3db21598bbfeaf88U, 0x3e3dd4c2bd7e2551U, 0x3d8ed271bda24887U,
  0x3e03a55f3e77f6b5U, 0x3d34aea6bdb86b72U, 0x3da1e4453e5adc44U, 0x3dd574ee3d114074U,
  0x3e130c7ebd800629U, 0x3d047d9d3dcb8e77U, 0xbe2886913bb27086U, 0xbddb0e363da418c5U,
  0xbd37c9163d04fa42U, 0xbe71a04c3dfac816U, 0x3dff224b3e066d62U, 0x3d0f5c903e080046U,
  0xbd3c54f53db6836fU, 0x3e01f30b3ccbae9aU, 0x3e3fd5d8bc9935adU, 0x3da4eef03e24933eU,
  0x3da4f1573d3f6f85U, 0x3d4e1d113d40e7b9U, 0xbd50babb3d37c349U, 0x3e18c4edbda6ed01U,
  0x3e12bdd63e391e53U, 0x3d52c1283e122037U, 0x3e08452f3da803afU, 0x3d3876c23e11f752U,
  0x3e69c6c83e82f236U, 0xbe4192da3d1166abU, 0x3d0120de3dfe9c4dU, 0x3e73cff93da23e9fU,
  0xbd1302253e9abd71U, 0xbd50597b3d23543fU, 0xbda2a82c3d8b5b5eU, 0x3cc603d33e2d02c4U,
  0xbcf1c71dbd52c300U, 0x3e4d01343d1e8c16U, 0x3e1d5f893d65b309U, 0xbdd45277bda8aebfU,
  0xbcbb65e93dc4733fU, 0x3dad3b903e5d6a33U, 0xbcc087583cca8fd6U, 0xbd88ba733d4d8e89U,
  0xbe1903623da56690U, 0xbe0056bfbe0d5233U, 0x3d3953f7bdcda7b1U, 0x3e70ae2d3dc5eaf3U,
  0x3e1769463e341880U, 0x3e20f7573db82905U, 0xbdab0bffbe4acb07U, 0xbe122b093dcc0871U,
  0xbe027639bda60a4eU, 0x3d654a0ebe13f9f0U, 0x3e379153bda8bab1U, 0x3e2c15b33e6eb014U,
  0x3dfe2c203db95241U, 0x3e5a0774bc6f8cc6U, 0xbc88531cbd8f99e6U, 0x3e6959643dcaee77U,
  0x3db0a2693e0ad189U, 0x3c0bcd91bdb95243U, 0xbdb81075bd40bc2dU, 0xbde489343e1482beU,
  0x3e8c5045bb2453c0U, 0xbba51a803cf21810U, 0xbd42940dbcea3b1cU, 0xbe4ecd8dbc534fdcU,
  0xbd2e1a453d960940U, 0xbe1e423dbd9fcbb7U, 0xbc6da4213e842e05U, 0x3e01ba823d12c8f1U,
  0x3c41aef53e5d8352U, 0x3e80a5a23d4a63f7U, 0x3d0175f2bd54dd5bU, 0xbe0c3d9e3d80c1c5U,
  0xbabc357f3e8fcd54U, 0xbdd43c8fbdcc7d76U, 0x3dc2a43f3ddf0099U, 0xbe5a9f70bd61a732U,
  0x3e67edef3e05d090U, 0xbe23ef753c4d6f3cU, 0xbdd210e3bdfa42f9U, 0x3ca357713c71aa7dU,
  0xbdd2b6503e5a0db1U, 0x3b0914863d81601fU, 0x3d80913cbd5de1daU, 0x3d951e5c3e4cbab7U,
  0x3d900caebe2142ccU, 0xbe2d26213e4dd920U, 0xbbb8d2333e11402fU, 0x3e568d153d83a250U,
  0xbe003251be0e7ed4U, 0x3d0a7d453d5e273fU, 0x3d6f51fe3daaff7dU, 0xbd52cb823e0abc36U,
  0xbe1927733dab3f85U, 0x3d80240ebe666aa2U, 0xbd1e75a23e79fb6cU, 0xb984aaa33d45503dU,
  0xbe874456bda2233dU, 0xbdd629ccbe32f448U, 0xbdbaca5fbe46d4abU, 0x3e626e7cbdb28262U,
  0xbd192372be6aef59U, 0xbd00d2c63e0a1bcbU, 0x3e15b12b3e342271U, 0xbd890ba43db5f699U,
  0xbd316a35be5f0bb4U, 0x3e6fadf33e3dc531U, 0xbdec13513e6979e2U, 0xbcea00823c6dbc94U,
  0x3b8ff0bd3d32201fU, 0x3dff4ced3e32c849U, 0x3e8b9a34bcbe4177U, 0xbd14a8963d43790bU,
  0xbcc9a190bd448735U, 0xbe84571f3b57bc46U, 0x3d0b5de2bd090199U, 0xbe5232aabde399fcU,
  0xbd99e0cf3df54823U, 0x3cc84c44bd915f2eU, 0x3e736e7a3d845603U, 0x3e05e7d9be144b39U,
  0xbce2bccdbbfbbacdU, 0x3d073c6b3dc16725U, 0xbe656aa8be157b17U, 0x3e27ccffbc582a4eU,
  0x3d9a74613d9c4467U, 0x3caba979bda98028U, 0x3deaaba63e4353ddU, 0xbd01b7e13d13f74cU,
  0xbd6fd97cbe470917U, 0x3e10ad7e3e2f76caU, 0xbd9eeae3bd2f1cfeU, 0x3e50d88dbc97cc4dU,
  0x3d5fea65bd17b915U, 0x3e6593933e46c5d9U, 0xbe7568703e80f781U, 0x3d87d402be447218U,
  0xbe574aa7bd9278e9U, 0x3e10acea3dfff3fdU, 0x3caf1f9e3cb712fbU, 0x3bfa3083bd1b6dd7U,
  0xbe12e19f3d01adc0U, 0x3e7e47bfbda333cfU, 0x3d84221abb77659aU, 0x3d9ac84ebaf8154fU,
  0x3df3c65a3de0e3b9U, 0x3e29231d3da3e962U, 0x3ddaa6cc3bab9a18U, 0x3e57b7bcbe746848U,
  0x3abe729bbd7c9a5bU, 0xbd98f9593d12218bU, 0xbdad9df43d7426e3U, 0xbdae981abd7a829bU,
  0x3d97a10c3c140d40U, 0xbc4673d13db1661eU, 0x3d2f096cbd39f0aeU, 0x3dd1a6063e365c25U,
  0xbe08537b3e62a679U, 0xbcc0e6f63e66cd38U, 0xbdd79992bd874857U, 0xbd0f7b403e4bc36bU,
  0x3c3dc9673e508708U, 0x3e7defcbbe71284eU, 0x3e00b90cbdd1eb88U, 0x3d23114e3d236189U,
  0x3da872cdbd6fd3ceU, 0x3daf5b213ca1f60aU, 0x3e04d54bbcf8c315U, 0x3d8b46a83c85c308U,
  0x3e4326ea3e7ff4c7U, 0x3d9eac04bc114ac2U, 0x3d61c2c23d9c88d7U, 0x3e4a1985bd8ad276U,
  0x3c672e383e4c0b48U, 0xbd04fc42bd8f3174U, 0x3e2971fcbd279fc5U, 0xbe2433ca3e5c0412U,
  0xbd52278e3db2c071U, 0x3d8eca4ebe87261bU, 0x3e20cadcbd4208feU, 0xbe4c4553bd00762fU,
  0x3e0d36ddbe3bc647U, 0x3ba867e1bd95e364U, 0xbdd13e413dea5255U, 0x3d3d5636be37e3acU,
  0xbe59bede3e2259cdU, 0xbd9330403e14ad8eU, 0xbe7597c0bd41964cU, 0xbd2c1d8ebddf231aU,
  0x3e174e05bdcc966eU, 0x3e077b83bdbe9106U, 0x3e824563bbbf1e9fU, 0x3e4d39413e833dacU,
  0x3dd84f7d3e1ae104U, 0xbe8582153e379783U, 0xbdc42ee03e82b622U, 0x3d4acb01bc550a9eU,
  0x3cf416c5bdc0f7edU, 0x3e31fb563e700488U, 0xbdb369d53e59f063U, 0x3e14d92d3d6fd476U,
  0x3d09a5013db7c29bU, 0xbdf8a8c53bf78e5aU, 0x3e1aa50cbd8f8d70U, 0xbda4a769bd2ea4ebU,
  0x3d9f62d6bd859dd9U, 0x3e7256293e3ab2feU, 0x3e64d814bcfda090U, 0x3dbc14663cc0130dU,
  0xbcd7202d3d8db13bU, 0xbcf9a1aa3e0a457aU, 0x3e454f493e823aeeU, 0x3d54e00ebd887464U,
  0xbe645619bcd770f4U, 0x3df51912bdd298ddU, 0x3cfef471bcd27657U, 0xbd5285bcbd0e6f36U,
  0x3de16e02be16b2caU, 0xbda027e8be51babeU, 0xbd14b31f3e2701c9U, 0xbcef991d3e6a3c65U,
  0xbd8b91593d49c573U, 0xbe882f333e03b7edU, 0x3dcce51bbe4ce0feU, 0x3c2f6de1bb426532U,
  0xbca09810bd8b4151U, 0xbdec97de3e5aad39U, 0xbca48e5a3df98729U, 0x3e2e64143cafc7deU,
  0x3dc06066be1f2159U, 0x3d6a7c4a3d6a8b98U, 0x3e0a6c593d226889U, 0xbe282d133e5b65d3U,
  0xbbba89f53c80feb1U, 0xbd199b173e5fba7eU, 0xbe3c05893e264a8fU, 0x3d9d18f33e15c185U,
  0x3e12c4a6be000b3aU, 0xbaff58483e5ce776U, 0x3dd1bd033e60f0caU, 0x3d9c34efbdb99d92U,
  0x3d7cda6c3e162a6aU, 0xbe19f9833da2460dU, 0xbda5d5c73d4591b5U, 0x3d490e69bd095998U,
  0x3d7648573d7ddf77U, 0xbe1407fdbd9c1cd2U, 0xbd835c213c88ecf6U, 0xbe4ea6a93e66754cU,
  0x3e6e57d13d97441eU, 0xbe20a5c8bd1f5a36U, 0x3e14a3bd3d4a8321U, 0x3cef97973dc07308U,
  0x3dbd3b593d20c734U, 0xbd10b6a23e1957e7U, 0x3d7e0201bdae1059U, 0x3e372cd6be822bedU,
  0x3cf72aeabdbbf920U, 0xbd3c6c1abe3edf50U, 0x3c061442be6ee953U, 0xba305f503e8c39b6U,
  0xbd969e77bda7644bU, 0xbe29fbfbbceea43fU, 0xbe391634bdb7e9ecU, 0x3de05fd8be05a0a3U,
  0x3dc32dd13dcc47bdU, 0x3e347a5a3dbfb23aU, 0x3e20f0233d31cf54U, 0x3e4a0126be3ad2e9U,
  0xbe4883983d21092cU, 0xbe3bc53bbde120f3U, 0x3e62b3713dd43e41U, 0xbddd358ebe1f26aaU,
  0x3e0c0dc4be62ff96U, 0xbe8b99493b853bccU, 0xbc9c175bbe08f136U, 0xbcdafc983ddf2365U,
  0x3c60f2733e7ee277U, 0xbda6fd033e563d87U, 0xbd8b36d13bea765fU, 0x3bf02ce63e6beeadU,
  0x3e83bba53e110e53U, 0x3dd90cf03dcf50c6U, 0x3cda5246be990594U, 0x3e818be83da645ebU,
  0x3e761b163e29bc17U, 0xbd9556393d92da47U, 0xbd844a6abd0d6a45U, 0x3d6f4d5fbdb41b68U,
  0xbe7583e93e0ca13dU, 0xbd274428bb29ac9bU, 0xbd37d8333d5a9cb0U, 0x3e1d175e3cb98eaeU,
  0xbd296664bd879d85U, 0x3df64f66bddb5fc9U, 0xbd9a73363c843001U, 0xbe23b5cd3d97ff86U,
  0xbd8937b5bd6da093U, 0x3e4456b3be034e32U, 0xbd932a0bbe6148ceU, 0xbe8d85ca3c8f91aaU,
  0xbd4d95a3bd520b87U, 0x3e04ed7fbdd9ef6eU, 0xbd57f45abdaf9684U, 0x3c3d28c5be4507ecU,
  0xbe3ead6ebe852172U, 0xbe24514a3dfa3544U, 0xbe81191cbe85f360U, 0x3bfde4cb3e5d29a1U,
  0xbc2978d33e75f3a2U, 0xbd453f09be30604fU, 0x3e21fa71be664189U, 0xbd8065223e33b15bU,
  0x3e34fde8bae6a131U, 0x3dab5c7fbd20b499U, 0xbd9960a13e7bccc0U, 0xbe2c2e333c8dd6aaU,
  0xbd954d77be18488fU, 0xba672e983e900863U, 0x3ce650d6bc8d405bU, 0xbc95a99abdd62275U,
  0xbde9825c3d3baf28U, 0x3ddc94bebd98e095U, 0x3da40b79bdb595b4U, 0xbddd0a11bcd85fe6U,
  0xbe8a64e53e624a89U, 0xbe081ed4be02d5fdU, 0x3d955313bd82cdc6U, 0xbdbaa58fbe15b83bU,
  0x3e6422693e072da6U, 0x3d4619643d0ebdbcU, 0x3dc454993e4ca5eeU, 0xbde7c0b2be626ffaU,
  0x3e08e40fbdee0aa6U, 0x3c6f7a61bd815ee8U, 0xbd9bd881be463ed2U, 0xbe1983e1bd1f1bdcU,
  0xbdeb1f5c3d4e89f7U, 0xbd74df93be0443dbU, 0xbe25b888bd055f24U, 0xbcf34bd03d0ff963U,
  0xbcf6404abe18b8e1U, 0x3d056ba43dfc2e26U, 0xbd1ebb38be20ceafU, 0x3e25a5673d93d746U,
  0x3dd813823e00a973U, 0xbdb6f0bc3cffd609U, 0x3e0c3fdcbdd53e2bU, 0x3d686756be2bfdb6U,
  0xbdc46a843df4b597U, 0xbced64ba3bb8c800U, 0xbd240c44bc950ae5U, 0x3ccb60b83d2e308cU,
  0xbdecba683d1a7c0cU, 0x3d7a044c3be15d40U, 0x3def8e73be136c7aU, 0x3bd5b4e2bd21c688U,
  0xbd4eeb88bd7ab0caU, 0xbdbe25bd3de999d1U, 0x3e2838c9be32a7f4U, 0xbd0e7a4a3e0925c7U,
  0xbc1511173e1fc0d5U, 0xbd9873ad3d166ea1U, 0x3d3fefec3e03c9f4U, 0xbcf99c7cbceeeff3U,
  0xbe31835b3ca92a90U, 0x3e0bc6ccbd8a1187U, 0x3c6cec5d3e2c4a5fU, 0xbe28f06bbdde6e1eU,
  0xbdb0b4713c5ae0c0U, 0xbd2ab83cbe2b07d5U, 0xbd231ed23e0cc49fU, 0x3dc482c6bd959342U,
  0xbdf1e88b3e28d82fU, 0xbd96dcbbbe111a56U, 0xbdfb9a3bbdc3b3a8U, 0xbe1b9bf73ca71350U,
  0xbd22b1d93d19f250U, 0xbde79f2cbe21c8caU, 0xbdaad25bbdf6d102U, 0xbdc58e8cbd556870U,
  0xbdc62a943dc99ce6U, 0xbdd02d36bdac85deU, 0xbdc5e3abbe033c27U, 0xbd621a89bdbeee96U,
  0xbd442ab8bded7209U, 0xbe16b52c3de7477eU, 0xbe0f16123cf099d2U, 0xbbf99cc13e18ada3U,
  0x3ce6310d3e23b9dbU, 0xbdb7c78ebe1b7e0eU, 0xbd90fa8ebd1dca52U, 0x3dbaf47d3e07c4b1U,
  0xbc5770c03ce555a8U, 0x3d512d283e346765U, 0x3dfe3102bde16471U, 0xbe3856fdbe035b8dU,
  0x3e19ef853cec8a2eU, 0x3e00e63c3e291b23U, 0x3cf951fc3d0853e9U, 0xbddbfbaabda0ea79U,
  0xbd1cbf2e3e06d2e5U, 0xbdc56ff8bd0caf0fU, 0x3d30ece03d588068U, 0xbdaaaa82bde3fc1eU,
  0xbd3c3f083e66cefbU, 0xbe059d03be06aae1U, 0xbd98c2fa3d7cc8c7U, 0xbde7368fbdc7efccU,
  0x3c703ce93df7a0f5U, 0xbe825c9c3e8b610cU, 0x3a79dd353dc0fc54U, 0x3dbe1f71be5faf97U,
  0x3ca270483c2fefdfU, 0xbd3cfde9bcfe47c6U, 0xbe3437eb3d25f062U, 0x3c56da593d882bb4U,
  0x3e7c80e93b7a6aeeU, 0xbc5440b1bd77aa0aU, 0x3e7620de3d72435bU, 0xbea0229cbdd475d1U,
  0xbd9b0cca3cd5ef60U, 0x3e28f1213e969367U, 0xbe896fe3bcac8939U, 0x3c936215bdc44552U,
  0xbc5bcc623e57567cU, 0xbe507a3fbd7c07f7U, 0x3e4fa426bbd73dcbU, 0x3cbcbe1cbe84f6ebU,
  0x3dd07e7abdc8bc35U, 0xbe1b9ab3bdd081acU, 0xbdaf30abbe379f76U, 0xbe32acf03e19f4a3U,
  0x3e3f34e6bce07ff0U, 0x3e78b8b8be53bf09U, 0x3da68a02bd97c946U, 0x3df4d983be5d3053U,
  0x3e499cc8be52c57cU, 0x3e2ef6b2bd1452aeU, 0xbe8f41df3d9353ddU, 0x3dc731893ddf40a1U,
  0xbe8d90e73d1af6c6U, 0x3cb4d5a8be1f164fU, 0xbd1359fbbd94ef2dU, 0xbe92df603e1d0900U,
  0xbc1caa303e085980U, 0x3e54d300bd813560U, 0x3d6a1bfc3bc3b7e0U, 0xbe28a232bd0e736fU,
  0x3e0cfb4a3e44a1b0U, 0xbe699bfa3d38de96U, 0x3e84912a3e5bf371U, 0xbe1adb0cbe0410afU,
  0x3de584063e11be63U, 0xbcae94ea3d9f1f35U, 0xbc774b4e3e413706U, 0x3dd7dd64bc9ebe26U,
  0xbdc777363e3c73adU, 0xbe5359483d380618U, 0x3d8cfb643d6d596bU, 0x3b290d0d3e1e1e96U,
  0x3e0f060f3d53711cU, 0xbd7f2df63d908994U, 0x3d74a819be1074a2U, 0x3c4060a63e125889U,
  0x3e458a6a3b908fb5U, 0x3e1da11cbb925d43U, 0x3d85efd9bdebb75eU, 0xbd3d10983e7c31baU,
  0xbdb7eaaa3e3b22f7U, 0x3e79d10d3da466c1U, 0x3dd2f651be390729U, 0x3db7b2713e616cb4U,
  0xbd4c6dc3bdc9eac8U, 0x3d3336143ce885edU, 0xbe6089e8bb4b4c43U, 0xbdc102ac3e32132bU,
  0xbd665e823e07ac8dU, 0xbde66a5b3e5ff39fU, 0xbdaed4773bfd9434U, 0x3d9540f3bc884694U,
  0xbd45a43cbdc0e604U, 0x3a80b24b3e1e1cbbU, 0x3da18ed83e6d7ac1U, 0x3e809e333de5036bU,
  0x3bd334833d948e72U, 0xba2655f73cd6ebd2U, 0x3e3fbd00bd92c3c8U, 0xbdda1db23d3cb8c0U,
  0x3e1ca9b3be3903bbU, 0x3e35b8c23e2240a9U, 0xbe4cafa5bbcb1d51U, 0xbe4764d13e1e1188U,
  0xbda1e5c3be0bf15aU, 0xbdbef65b3e23804eU, 0xbdc7b32c3e13f57eU, 0xbc485aba3cf8ac3cU,
  0xbe01db3d3dacdc9cU, 0x3d3a3e5f3e777bd9U, 0xbe1c4f0fbdb868b7U, 0x3d75772f3ce54c9bU,
  0x3dad92513e69f68dU, 0x3d898e7b3e144892U, 0x3e6c79633d6d6ae2U, 0x3d4bb5e6bdc5b851U,
  0xbd9dee6d3c25b73fU, 0xbe4f747abc7f683bU, 0x3d30f71d3e2cf298U, 0x3d36cc70bd8903f8U,
  0x3db1eef53da837cfU, 0x3c0237ea3de83b69U, 0x3c02a5283ba3fb2fU, 0x3d05c8a73c30d25dU,
  0x3d02c59abe12be56U, 0x3e63ea473df06dc0U, 0x3d5bf0d93dcbe6bfU, 0xbe09ec113cd5a11aU,
  0xbdd3e86d3da1fe75U, 0x3cbd0613be2d565aU, 0x3d1881c3be10615dU, 0x3e7843cd3e3716a5U,
  0x3e53b2bbbd216183U, 0x3d8d774b3e50d966U, 0x3e1f44143e55a49cU, 0xbde254bcbe0abbf9U,
  0xbd603ebabd2fd831U, 0x3d9fcf093d032c15U, 0xbd40f2d23d420600U, 0xbe0cadbfbe2ad7d6U,
  0x3e1559d23d46d29cU, 0xbe18effbbe17d092U, 0x3e43df913cf6db6fU, 0x3e22f44d3d0faf6aU,
  0x3e61e12fbd58852cU, 0x3cf38c93bd17bb4aU, 0x3e3c5f2fbd4525d2U, 0xbe0c6ea43d7073d9U,
  0x3bb842163d0818dbU, 0xbe196c053dfca88dU, 0x3e5b41853b99c2faU, 0x3e1962933d9d4e31U,
  0x3e7b6b403e95933cU, 0x3d8aa2543df4cd56U, 0xb9932a9fbc2133eaU, 0xbdcf84a43e4f136cU,
  0x3e68e3c3bceaaebaU, 0x3b6d663b3df3fc3cU, 0xbde497693d5dcd35U, 0xbd6fb79e3c992adaU,
  0x3e2b49abbd6b0e33U, 0x3e39a8e4bbfbb821U, 0xbe6f0af93d94aa7cU, 0x3d884d1abe2c3e8eU,
  0xbc7f522f3e5eeee9U, 0xbe085a81bdd4854bU, 0x3d1b988b3abef634U, 0xbdb537a53dd62f23U,
  0x3da63e083b4545c5U, 0xbdb8e3a6bcceae84U, 0xbe0751733cd65393U, 0x3e012c38bddcf20fU,
  0xbe07ff233d42e8faU, 0x3e33a5bf3cb65aafU, 0x3e37fc32bd00b11bU, 0x3d55395d3e1a8ff2U,
  0x3c31b79bbe0df217U, 0x3e766fda3e0df47dU, 0x3d94ff16bcfa1fc3U, 0xbbd4ca583b87e786U,
  0xbd8a46a0bdf139b0U, 0x3d4e19ba3d0a4b4fU, 0xbdd6ed233c7bc6a1U, 0xbc93cc243e2208beU,
  0x3e533581bdc43b1fU, 0x3d54c3143df13093U, 0xbda68c713e4d4465U, 0xbe53044dbe026dacU,
  0x3dbe96babda791eeU, 0x3e205d513dd4e963U, 0x3e3fd8403e4a3246U, 0xbe3d72e73d5b27eaU,
  0xbe04a08a3d39b6caU, 0xbd04eeb0bde3f17eU, 0x3e1d19ff3e09ce1dU, 0xbdfe0e293e1c176dU,
  0x3db855ee3c58bab8U, 0x3dfe489bbd34443fU, 0x3cfd33973e0ba0e6U, 0x3c90c1b33dc735f2U,
  0x3e74ce093e07279eU, 0x3de8981bbd9ad635U, 0xbd36f226bda007a0U, 0xbd1d04f03dfb189aU,
  0xbc86aba33d6359f0U, 0xbd97fd2ebc5cdc3fU, 0x3e43786ebd2f1130U, 0x3d8cf2a83e1b465aU,
  0xbd8dfa2b3e16ec21U, 0x3e490ae63da12e4cU, 0x3e45338bbd81081dU, 0xbda00437bd19cc3dU,
  0x3e7224103e38f9a0U, 0xbd57069f3e5eb5d3U, 0x3e400c4dbe1302afU, 0x3e0b0ec1bdc0759eU,
  0xbda520973e81eb33U, 0xbdbaa4473e49781eU, 0xbdabbe443e208bfdU, 0xbd9df2ba3e688c58U,
  0xbd2d836c3dd6ee4eU, 0x3e0da375bdad6133U, 0xbdd3db333d50aeaaU, 0xbdb3cfb4bd7c5b75U,
  0x3e1760f03e326f11U, 0x3e2d85913e5582e3U, 0xbdf521fbbe25cc0fU, 0xbc01f8d13c8d8f5bU,
  0xbe23122e3cf23fccU, 0xbddf0b31be1e7b9dU, 0x3c37c6b5bbfb5179U, 0x3dc69090be4ba77bU,
  0xbd44d0643e4da693U, 0x3dfc676f3e0dd3e1U, 0xbd82f65f3d7c10f6U, 0xbd871854bd917ae2U,
  0x3dc48d10bd0db1c3U, 0x3d843ec63c6d327fU, 0xbca68163be027ec0U, 0x3e3a9b763d8cf0feU,
  0xbbef2f903dd37967U, 0x3e155be7bddc8bacU, 0x3ce14a01bdf15717U, 0x3e4729973d98cf8cU,
  0x3e22ff1a3dd3c460U, 0xbd83432dbd9cb318U, 0x3e2e198c3e0e83bdU, 0xbd838df53db43e55U,
  0x3e34e82fbe081de0U, 0xbdbeefce3e6e90a3U, 0x3e0f70c43e1aeb7eU, 0xbd30266fbe034f73U,
  0x3e2e6969bc773ff9U, 0xbde0043a3dc56cceU, 0xbcc72d553dae8364U, 0x3ca4333ebd68bc0fU,
  0xbdd142d03e15af0aU, 0x3c79cf11bcb2b102U, 0xbda73b283e0d0721U, 0xbd29b1bb3e19b904U,
  0x3e7b5c11bd6467edU, 0x3de8762c3c040716U, 0xbe1783c0bd82ef32U, 0x3d1235a53dba6330U,
  0x3e465cdb3d8d1c70U, 0x3e05b6b53ddf780cU, 0xbe7abc99be305125U, 0x3e092cfbbd4febfeU,
  0x3cb13f77bde9abeeU, 0xbda6ad61bd6995f0U, 0x3d293897be209195U, 0x3da79c273e0b174fU,
  0x3e8234b9bd3484ffU, 0x3d1c5776bdc09c68U, 0x3e0ca97f3e2de7f3U, 0x3de0e2cf3e7cc435U,
  0x3d9298a6bccfa1f8U, 0xbcb9b94ebd2b11f3U, 0x3d7a4c5dbc6bc88bU, 0x3e7719943ce5007fU,
  0x3da669bc3e794a5fU, 0x3e4ac2ecbdd1646bU, 0x3cc5e0c13d9a277cU, 0x3d027c7b3c03955aU,
  0x3d015764bca9a824U, 0x3e2c75383e2694bdU, 0x3e26d48d3d79e27dU, 0x3d44b8653dd23883U,
  0x3e3c360d3cb0db8cU, 0x3e17faae3e40447eU, 0x3c95bed8be535496U, 0x3d69d55bbe51526eU,
  0xbe5464603e474ff6U, 0xbdcf53713d49d5deU, 0x3d107f323de02aedU, 0xbdc2d816bbf868e8U,
  0x3d243af13e23fd31U, 0x3d20419f3d542f51U, 0xbe023c873de9f00eU, 0x3d2f4bcbbda489aaU,
  0xbd37c499be57fe9fU, 0xbdca0a5ebd09c0e8U, 0x3d043850bd8f2266U, 0x3dc4df69bd86e008U,
  0x3e111809bb442fbbU, 0xbd8a2f00babab048U, 0x3d5156cf3dd2bde9U, 0x3da220e2bdc46d5dU,
  0x3d94bfcdbd6a9b84U, 0x3e06aa30bcefe89cU, 0x3e395e0f3e385199U, 0xbe2ab59abd41b7f7U,
  0xbdadb3d83e535243U, 0xbd1020e7bd1930b6U, 0x3da5cde83e70362fU, 0xbcd3d6873e32882bU,
  0xbdfce2483e327229U, 0x3e30fddebe0be758U, 0x3dac83c33e1efd83U, 0xbcbea70a3d9efa98U,
  0x3de4dc563e0903edU, 0x3e27cba3be4ab8aeU, 0x3d2a336a3e32bd62U, 0x3c57d6a9bdea65f3U,
  0x39f414ea3e02b24cU, 0xbc2b50573d27142bU, 0x3dd202363e6b2444U, 0xbcf52d8c3d95b143U,
  0x3e2a36173e360c0aU, 0xbd4c458f3d4fd4ccU, 0xbda507d1be5aed7dU, 0x3dbadcf23da5c083U,
  0xbd132a863b6eb49dU, 0x3b7662513e54c150U, 0x3e66d4dc3dd0bc85U, 0xbe3be8853e83b2edU,
  0xbb502bf7bd8bf262U, 0xbd9e0c4c3d1ba6a2U, 0x3c846618be133028U, 0xbdb8f224be2c037cU,
  0x3c8430e3bd81bc17U, 0x3e831a383e4c893fU, 0x3de08c823e09bf4aU, 0x3cecae203e1ce91fU,
  0xbdf0b1ecbdc14046U, 0xbc7e0110bcc4ace6U, 0x3e032e933cd14dd2U, 0x3d9d58553d0cd2e0U,
  0xbe3037bdbe17db62U, 0xbdc115c0bd146739U, 0x3db5e1373ba57bb6U, 0x3e2b0069be0a39f9U,
  0xbdbb1452be6203a0U, 0xbd1adf0c3e1f9fd4U, 0x3e5d658c3deb3153U, 0x3ad0c7d33da29b7eU,
  0xbda726513d014e8aU, 0x3e051e093dad3712U, 0x3dc22f4ebd367021U, 0xbe4855203b9a2133U,
  0xbe5681d9bda4cd0dU, 0x3d8e9c53bdfc4f24U, 0x3e87e5d2bde45eacU, 0x3dd060843e52799fU,
  0x3da23b8fbe09f6e6U, 0xbe08fadd3d85251eU, 0x3b7803863e218848U, 0x3cb790213e334d7bU,
  0xbc97f4d63dbf8d3bU, 0xba82e9103e56c8c1U, 0x3e944540bce11bacU, 0x3d5099ac3e18c661U,
  0xbd02dd71bdd4ce0dU, 0xbbbb7da0bc284f9aU, 0xbe101a45bd49a3b9U, 0x3df7e85bbe343fb7U,
  0x3d0b7d7e3b51ce61U, 0x3e13ac283d776f06U, 0xbc2fbf5e3e5a65e3U, 0x3d9d32cabe1078b4U,
  0x3db687263d9ff744U, 0xbc6d7cf9be0c0c3fU, 0xbd57cc5e3d85bb73U, 0x3dfd1845be2552bbU,
  0x3e1687d0be1e61a3U, 0x3d1c866c3de6d519U, 0x3dd350283ddd69eeU, 0x3c4b6b8fbb45aac3U,
  0x3dbd1a8ebe5f1aebU, 0x3ddc13313e12b4a4U, 0x3e26e181bdbcaa37U, 0x3d10aea1be457f1cU,
  0x3a220513be0d8a08U, 0x3c85220fbd8663e0U, 0xbd0f0ed83db15d7aU, 0x3daa35fabcb21fbbU,
  0x3ccb26eb3d8fc1d3U, 0x3e33ad1b3e80353dU, 0x3e6f9b983e22ef27U, 0x3e5d81d0bcdac9d1U,
  0xbe3e0d98be39c4d3U, 0xbd2d7e5dbcb594f3U, 0x3cc03e383d94553dU, 0x3e2bd5c23e0115cfU,
  0x3dc230be3d2f5eceU, 0xbe132fd4bd8c6c64U, 0x3cad28373cca2c7cU, 0x3cddd49f3d3abf08U,
  0x3e2d6004bddec528U, 0x3d67f1843e49aab5U, 0x3e61f8e33d5b59e4U, 0xbda05e013e199fb5U,
  0xbd988f6abd825ee0U, 0xbcbb4a6e3d9b78d8U, 0xbd46d884ba409293U, 0x3d6f39ddbd3d2e97U,
  0x3e0d9110bccb5919U, 0x3e017929bd183df4U, 0x3c39c989bcc01c1fU, 0xbe3f40e43e5b5453U,
  0xbd036cd1bd381527U, 0x3d1ccf4bbddf3cbdU, 0xbcea88523dbfbb00U, 0x3e05f2ac3dae9f70U,
  0xbe1aa30dbe06c619U, 0x3c750d3ebc200683U, 0xbe6efd2e3e7b5ae5U, 0xbd749b5a3db0ccb1U,
  0x3ce43ec93db058c7U, 0xbd0bb6ed3e263f7dU, 0xbd118aebbe444f5fU, 0x3e7d171d3c75ffe7U,
  0x3d01c6563e3b79bcU, 0x3d3425f8ba7f932fU, 0x3db95e7a3e199f1aU, 0x3d3eff003e60725aU,
  0x3e54cbbe3dc981a3U, 0xbe1c63cd3c6df221U, 0x3e4a3fe23dcc92aeU, 0x3e507762bdca5076U,
  0xbd85bba8be2b8a6bU, 0xbe6a63623e3df7caU, 0xbe811a31bdf01363U, 0x3c8d4045be6b86f1U,
  0x3d89a2c3be49bf67U, 0x3df37745bd265125U, 0xbe630327be569681U, 0x3e2d6f4c3c90b04fU,
  0x3c002c70bd0062ebU, 0x3c2ecfa23dba15fcU, 0x3e50d40dbdbbd414U, 0xbc19b8383d9236d0U,
  0x3d18d3173df32831U, 0xbd0699ce3cdaa4cbU, 0x3d5dfbf93c2bba01U, 0x3c31b3f0bda90a5bU,
  0xbd47c5263daa35aeU, 0xbd842ef63df01c85U, 0x3dcb91873de186e5U, 0x3ca59e7abd0dc9edU,
  0x3df0a66cbdca5025U, 0x3de639bb3de8ece5U, 0xbda4416c3cc37c75U, 0xbd9f1062be14792bU,
  0x3e1e540dbe689b5bU, 0xbe0069543e52cda9U, 0xbd0ab5a1bdf1aabdU, 0xbd6c318dbe7b61c9U,
  0xbe51f4d63db426c8U, 0x3e3f562d3e106b60U, 0x3e3bad5e3e4b3a69U, 0x3ce94a303e7fa5a7U,
  0xbd3e5fd23d3860cdU, 0x3e18bd70be646dffU, 0x3dfe71143d4e378eU, 0x3de7e074bdf29dc1U,
  0xbd936187be0d7683U, 0xbd4133e7be1acc1cU, 0x3e3eb0efbd0c84d5U, 0x3e62a6623e3bc71bU,
  0xbe60711dbdef2d28U, 0x3c9ed8d23e788ed5U, 0x3d55f94e3e47cf86U, 0x3e49f715bd79062aU,
  0x3d3e81e6bd91605cU, 0xbd2db4bc3e1ca4a4U, 0x3c7bcf06bcb5464eU, 0xbd92023e3e9963b9U,
  0x3c8c24eabd97f57aU, 0x3e3197dc3deb737fU, 0x3e566a38bd070fa6U, 0x3d8dca4c3de593b6U,
  0x3e3c2c0a3d29a08dU, 0x3e049fc33d18f7d1U, 0xbd88e4923e16d40eU, 0xbdd1dfefbd74a9acU,
  0xbdfa9c0f3e0a4a4fU, 0xbe09925cbd252dddU, 0xbcaf1a543db87733U, 0xbd353d8a3dfb2d3cU,
  0x3c41fbde3c22f944U, 0x3e3d4fccb8140168U, 0xbe69f6a1bc97023bU, 0x3defd5673d692adfU,
  0xbe29a3623e0c2f11U, 0x3e52133bbd2cfe13U, 0x3c91a3c13e349d1aU, 0x3e5085d8bd96bc9aU,
  0x3d198b613e16ec08U, 0x3d89b272ba956941U, 0xbc91d5323d848e62U, 0x3da891c03b9355d9U,
  0xbdd421a1bdbab791U, 0x3c0e9a9abded2ff6U, 0xbd806c963e0917f6U, 0xbd16de2eb9bb0b15U,
  0xbe15191e3d9a4de7U, 0xbd1afa553d21fb20U, 0xbe031c703df06217U, 0x3e3888a3be1899a1U,
  0xbce5582b3a3869a7U, 0x3c04a7c63d6c03a4U, 0x3c796c183e0b96c6U, 0xbdb104863dd6b051U,
  0x3cb46787bd3e19bfU, 0x3dedb34fbe44f07eU, 0x3e1d0b09be28303cU, 0x3d924065be556970U,
  0x3e36b6543e85d074U, 0xbcdf8920bc16b788U, 0x3e112679bdbe57d6U, 0xbdcca6553e129848U,
  0xbd9833b73cc34a9fU, 0x3dd104373d83bdc7U, 0xbcbbcbfbbc037e8fU, 0x3e3f5831bd4ceacaU,
  0xbda20f0e3e16f9f7U, 0x3e1d2423bc6d99d4U, 0xbd8a1f063e0150b0U, 0x3e1c614e3d8bfdfeU,
  0x3e440dc43dc3f236U, 0x3b2397debe341c43U, 0x3e83815f3c969862U, 0xbd0d78793d1432c1U,
  0xbdd485df3d4a6c23U, 0x3d4005b83de2addeU, 0x3c0e17b43d914e98U, 0x3d99930bbde0f283U,
  0xbce88db93d0b0a11U, 0x3da1e9e8bca2f651U, 0x3e46a63f3b82bfc2U, 0xbc2f3597bd5c8917U,
  0xbdd0ab20bd98502aU, 0x3e82a22b3dbf3888U, 0x3e59321e3c9b394bU, 0xbd1ff1093e42dff4U,
  0x3c80057c3de8e96dU, 0x3dd86b37be25667eU, 0x3c8dba6dbd886af8U, 0x3be529b83e1537dbU,
  0xbbc208a3be37cb82U, 0x3e5b2befbdc54fcaU, 0xbe0ca61b3e0e323fU, 0x3c7f5b28be5ebae9U,
  0x3d98c98f3e1d6b4bU, 0x3e0a93f43e31030fU, 0xbe4b05e63e3cbc05U, 0xbcdd30593dae4057U,
  0xbda949873e4e5e53U, 0x3e2758d9bce05cfdU, 0x3e9764463c4870f0U, 0x3df18248bcf652b3U,
  0x3e0f55873e45274aU, 0xbe2a6a063e5d4290U, 0x3db5432b3e908ae4U, 0x3dfc147cbe420dceU,
  0x3de495aa3c8648adU, 0x3dd9f821bda3e5faU, 0xbd256b3e3d90dc8eU, 0x3e0478503dd266ceU,
  0xbdd5ec61bd45772fU, 0xbda4d32e3dbfba66U, 0xbd761b67bcf8a8f4U, 0xbda0734d3c9a56c2U,
  0x3debd21a3d3ecae8U, 0x3dd1ebe7bcda8e3bU, 0xbd588554bd803ea3U, 0x3d847f8abdd2d4f8U,
  0x3d8b365dbe5d96eaU, 0xbe71f290bda2df1aU, 0xbe1d2436bbd8815dU, 0x3dec4f2abe14bf37U,
  0xbd9923283de7b03eU, 0x3dd00505be1e4fa2U, 0xbd57e6b23daf25bcU, 0xbda83d2abd6c580cU,
  0x3dad0dd6bd4ccc9bU, 0xbdaee08bbd540436U, 0x3e0edb94bd4e5cf1U, 0x3d2579bebd831492U,
  0xbd5d7ff5bd0d808aU, 0x3e1198de3da95987U, 0xbe1c317f3d9f580aU, 0x3cde5ba0bdedd496U,
  0x3d9fffc83d110562U, 0x3d24d5d53d148774U, 0x3df14deabe0a0874U, 0xbcfcfe6dbcfc532bU,
  0x3e6fd8063e6545d2U, 0xbd9c93a93e441703U, 0x3d621b1e3db2ce94U, 0x3e37b8a3be8c97caU,
  0xbdbe98b13d474cddU, 0xbbe2b2bebe6f765aU, 0x3e49c4583dd5931cU, 0x3e507771bd46ca98U,
  0x3d54bb5d3c386b81U, 0x3d8154963ca07738U, 0xbd9976ad3d8fb6daU, 0x3def7f773d324bafU,
  0x3d47f8683dc8c470U, 0x3cb81d68be6d46f3U, 0x3d67ca88bd41778eU, 0x3df641c4bdcbb38dU,
  0x3e54637bbdd8951eU, 0x3d06ad253e03c160U, 0xbd8abfca3db03592U, 0xbcb83ca93de200afU,
  0xbdaa91793db52643U, 0x3e4cb7773dec9f60U, 0xbd4a4bca3e62e41fU, 0xbe98881c3d8de288U,
  0x3dbe6c57bdeedec4U, 0xbbfcc2d23db9be9eU, 0x3e642a783d1f7e6aU, 0x3dd3abbfbdc036c7U,
  0x3e4facad3cfb4debU, 0xbd886153bdeda0e3U, 0x3e60cced3e28e204U, 0x3d38168dbc921ff4U,
  0xbe2d567ebde357e3U, 0x3dc8ac4c3d7dfb13U, 0xbd3fb588bd30639aU, 0xbdfee4b83e370d01U,
  0x3dd7d87ebe19ff99U, 0xbe474ff03e2eeac6U, 0x3e0c7e483c9aa216U, 0xbe14daa8bd3aa1bcU,
  0x3e30cf0dbe00a443U, 0x3d3545913e328cb6U, 0xbca90e44be26b6b0U, 0x3dd52170be16f92aU,
  0x3e622a783dcc475bU, 0x3dcccef13e6eb3ceU, 0x3e6d65333cdffcb4U, 0x3d5d0cbb3d3baa05U,
  0xbd9f77f33db5a44fU, 0x3e3d8e183e5e4999U, 0x3e0e5d3e3dbaeb86U, 0xbddce7b6be265c3fU,
  0x3dae6651bac32597U, 0x3df00ea6bdd5af2bU, 0x3dac3c303e4ece8eU, 0x3e4e161d3dc46e71U,
  0x3d4cc4a0bddbf6c4U, 0x3d2ebe65bd971035U, 0x3dd7b3413d62c2e8U, 0xbe0da031bced73d0U,
  0x3d0d73083d8ac05dU, 0xbe541a093e65cc28U, 0xbe60534fbe2c3277U, 0xbda6b7843e144f9eU,
  0xbe5071b13d36aefdU, 0xbe0192f6bc9c87cfU, 0x3e4d20f23e44d8b0U, 0xbe135727bd451bf0U,
  0xbe17488dbe62f2baU, 0x3dd6b9633e69e8a3U, 0xbe4ad71ebdf9e527U, 0xbdf1992d3e12ed7aU,
  0xbc59506ebbe7e361U, 0x3e5df4463db76868U, 0x3de3e011bd99a1a4U, 0x3d36e6e03d48a313U,
  0x3dc7e6503e1a981cU, 0xbd9b80cdbd11ee2eU, 0xbbd55d833deeac91U, 0x3d329fbb3db2ec29U,
  0xbcaae2c93e344946U, 0x3d9195af3dc6c7f2U, 0xbda7a7cabde7757dU, 0x3e23ee3a3d987862U,
  0xbcb3b781be57b7c8U, 0x3e188a253e0c5e7eU, 0x3e66dc29be08e173U, 0x3e5a4980be525a76U,
  0x3dac6fc1be3edb2eU, 0xbd3f975f3dad819dU, 0xbd4f8299bd302c20U, 0xbdc272d1bddc9f3aU,
  0xbe1e7999be556bddU, 0x3e69a31d3ce963d5U, 0x3d988dfebd732944U, 0xbd0764153dfb82d5U,
  0x3c062cf7bdbd0f16U, 0xbcc4e9b7bdbbefc8U, 0xbdded99cbe0d8f06U, 0x3d0231ab3d817ab2U,
  0x3cb56c79bd8c7b19U, 0x3e3bc9a3bc36eb1dU, 0xbe137c85bcba75bcU, 0x3e0ec5febe057528U,
  0x3e63ecddbdda0418U, 0xbe309dec3dcf38bcU, 0x3dbbc5863e1f7e2cU, 0x3cd035433d9c74fbU,
  0x3e6555ed3dc69271U, 0xbd4fe7473d14d4b7U, 0x3e31b261bd3f9cabU, 0x3db14c263cb5081cU,
  0xbde14702bd1ab2a6U, 0x3d760a383da96b0aU, 0x3dd35b253d3606f3U, 0x3e5045a2bdd9b72cU,
  0x3e6db8f13daf4957U, 0xbd6ba27b3d815daeU, 0xbe76a78ebdca8820U, 0x3dfab0e83cc0c3c9U,
  0xbdc96848bdd4629cU, 0xbdbc8476bcd5b846U, 0x3e31645fbe1f23a3U, 0x3e27c44bbc1f4574U,
  0xbd3e09893dac96a9U, 0x3df3e6703e355aeeU, 0xbe38d6dc3e2d977bU, 0x3e783bc73c0067abU,
  0x3db767a13e41ac93U, 0x3e4963cd3db5dfbaU, 0xbdfaeb5c3e630b99U, 0xbe0a81db3e3593a2U,
  0x3d666635bd9ed09bU, 0x3def88253d7f4e14U, 0xba786be6bd7e842fU, 0xbe1554473e65bb9bU,
  0xbd99376f3e20271fU, 0xbdeab648bd96fa19U, 0xbe6a82a43dcfd6ccU, 0x3c5a4706be7b523dU,
  0xbd826badbd2522a5U, 0x3d5076703e446a94U, 0xbce541503db5bca0U, 0xbce9840b3e498772U,
  0x3dc255e83deced97U, 0x3daabd0e3dbe687eU, 0xbc1a26bdbde72e49U, 0xbdb615073e06d330U,
  0x3e0d03e1be61df35U, 0x3d8f8c063dfa8f9fU, 0x3e17e030bde89c8cU, 0xbcbad1953d1fab2bU,
  0x3b978016be06e4daU, 0xbe2880e63c231761U, 0xbe651bbc3adf2cacU, 0xbdbc2f543d778904U,
  0xbe19032b3ddf0cd7U, 0x3e004c1dbda83ee9U, 0x3c8f1778be600c41U, 0xbdba0abf3e0b1637U,
  0x3e574ec43d1e06c4U, 0x3c7f3da6bdb78f2eU, 0x3db9f912be0f67d6U, 0x3e2aaf5bbe352ca4U,
  0x3e3daead3c5e5e73U, 0x3d2ce204be11798cU, 0x3e276aad3e027e90U, 0x3e321cee3cf64e4aU,
  0x3d067b25bdab245bU, 0xbe10cd673dd09c42U, 0x3e0399e0be010582U, 0x3ccc19c5bd3eced6U,
  0x3e3f4e303d1a6fd0U, 0xbc345d293e5cf374U, 0x3e00457d3e6b42ccU, 0xbe35ff303dcfd2e0U,
  0xbccdd0e0be8c5bc5U, 0x3d60dca33d47d050U, 0x3d88894ebdcb5cb7U, 0x3e3c1f7c3d95fba1U,
  0xbdca47cbbe047cf4U, 0x3e49c88a3df1f5a3U, 0xbe3d541a3de79a0eU, 0xbd349a8c3da98d33U,
  0x3e1ad39abe3454dfU, 0xbe89ab243cc206c7U, 0x3d99e9acbe4a4a51U, 0x3e025cbc3a21a6b5U,
  0xbe1e179abcd9ba4cU, 0x3c28d2793c78c497U, 0xbe197226be132d81U, 0x3e4e3c053e5322a2U,
  0x3dcb39663dce34beU, 0xbe3aefb7bd833921U, 0xbd4d58e53d388cbeU, 0x3d61e9053e1e7130U,
  0x3ccfbe76bda8fbc3U, 0xbc7394da3e473decU, 0x3d8f09893e00ada8U, 0xbde9dfecbd33faf6U,
  0xbe0ab5123d902e71U, 0xbcd57c283e0e790aU, 0xbdc3aaa53e038db0U, 0x3e0ceda83ce7bacbU,
  0x3d4edb123dc35856U, 0xbbf3466bbcdb420aU, 0xbda5cc19bb5a80f0U, 0xbdfa8dc93d783730U,
  0x3e1554ed3e3894a9U, 0xbe3844aabc54113aU, 0x3e4d9b6b3cc2a68fU, 0xbe8684e43e7ae8eaU,
  0x3e1fef4a3d102365U, 0xbe8d278d3e5769b7U, 0x3e440aaabd9bbfadU, 0x3e114d263d7f5c15U,
  0xbd05664ebca1dba2U, 0xbe3d66ac3e04931cU, 0xbe58d18ebd5e6099U, 0x3d8f8905bdb7a9fbU,
  0x3e082a0e3d7ad3c7U, 0x3da618e3bd151672U, 0xbe3097b8be467e4bU, 0xbbb5ed4f3e417609U,
  0x3dde8a563cd63c77U, 0x3d8b7d07be229ff7U, 0xbdf9bb7b3cd30206U, 0x3cb02b4e3ddc5743U,
  0x3c7d8737bd439934U, 0x3e40954bbe0527caU, 0x3da7929cbe0a59e3U, 0x3d5bda80be254049U,
  0xbdb89befbe1d6f6cU, 0x3d6e20c13dcdc385U, 0x3e7cf1923c78fa10U, 0xbd18b5c6bd8f5877U,
  0xbdd7b15a3cee0d2eU, 0x3e59ee67bd8c1b0eU, 0x3dc0e0c33c861181U, 0x3ca53c3d3e74e4adU,
  0xbe7b55953becfbb5U, 0xbd1d67e33e336388U, 0xbde23da6bdf64206U, 0xbdb5dfee3c77f25bU,
  0xbccd548abe310356U, 0x3e055873be8070c8U, 0xbe9727c93e6a6c68U, 0xbe267dabbd144d79U,
  0x3cb455e2be6c6a44U, 0xbcd0218ebe41a5b4U, 0xbd55804d3da664dfU, 0xbdba311abc43150aU,
  0xbddb97923d276501U, 0xbe17cb693dec1f41U, 0xbe1b09a43d6b565cU, 0x3e2d02153daaeb1dU,
  0xbe4b5d2b3d1ff9b9U, 0xbe02ec83bdc2984eU, 0x3e3de5c6bb15bd97U, 0xbe42dcfe3e4e1f8fU,
  0xbd879511be36654aU, 0x3dbf5a103e7697c9U, 0xbd21994dbd26dd27U, 0x3d2390fc3e24fdfeU,
  0xbe0869513d977fc1U, 0xbdd81ed4bcd94de0U, 0x3dfd16b2bd2f67b4U, 0x3e2c626fbe158e43U,
  0xbda030cb3d6042bfU, 0xbe17c65fbde1e65eU, 0xbd4cefe33d499bb4U, 0x3dd8ab263ded518aU,
  0xbd0592d3bd1d9352U, 0x3d825a3ebe09ddc4U, 0x3dac36983d779e41U, 0xbdaa68ce3e6d5b51U,
  0x3e1b89c3be1c8c01U, 0xbd742e173e7ef836U, 0x3c97a654bd982efdU, 0x3cd6d9383e06634cU,
  0x3d1ca945bddae02fU, 0xbdd7beec3d7e92e5U, 0xbe0193153c367a06U, 0x3d9ee7253d32e9feU,
  0xbcb0ca9abe485855U, 0x3b31167bbe503893U, 0xbdc90b89bd36a406U, 0x3dc15faa3e53f2f4U,
  0x3d91c5da3df28afdU, 0x3d025a7fbe257639U, 0x3d09bc3fbe7465adU, 0x3b70be6abdcc928fU,
  0xbda4e3323ca96489U, 0x3e3d7c3abdd5ce7aU, 0xbdaf5582be114a9aU, 0x3e7f1262bdcbbab1U,
  0xbc18143cbe2e9e5bU, 0x3ca0be233d29d1a2U, 0x3e126a9e3e16dcecU, 0x3e098127bded9826U,
  0xbc672404be16fcdeU, 0x3d57c88bbe356123U, 0xbd50aee63db08320U, 0xbd591fe43e2025cbU,
  0x3e3f79843e74277dU, 0x3e0671cbbe1a248eU, 0x3e92ba903d93838aU, 0x3d37adebbd2fb550U,
  0x3dbf40243de317e6U, 0x3c80587dbcb7ae58U, 0x3e7d2e2dbe6abce5U, 0x3df89a69be2aebf0U,
  0x3dc1d4043dfb8a4bU, 0x3d18b2b5bd76c606U, 0xbdc031f93e9689d1U, 0x3b1433783d39b08cU,
  0xbd83b9113e71b9f9U, 0xbdb04d4abd8729b9U, 0xbd5be2003cbc8a97U, 0xbd94c5ca3ddf9963U,
  0x3e01c7a43e265a4aU, 0x3e52c9343cd20c8fU, 0x3d8ae30cbe4f0541U, 0xbb5f6e67be1a0e2dU,
  0x3e1986e53debc195U, 0x3e08ab983d664d56U, 0x3cb558113e3dce2eU, 0x3df33441be2c2526U,
  0x3e248428bdc96a6cU, 0xbe0bff64bdf23dc8U, 0x3c830162bdfb5078U, 0x3e0326dc3ce2ed26U,
  0xbd2010953d7f0b1fU, 0xbd92e7a93cf330afU, 0xbd1414933d586a87U, 0x3e3ca5333e66182bU,
  0x3e39253a3c832ef0U, 0x3e35dac23d6ee373U, 0x3e0c70c13be42611U, 0x3e7e1522bdd2d04dU,
  0xbdfd329a3db4190eU, 0x3e789555bd895075U, 0x3d21e2273d98c54fU, 0xbb7b43b43dc63b0fU,
  0xbd91c55c3e5e1729U, 0x3e69c6933b8134a4U, 0x3c7cddc93da0ffeeU, 0x3c4451863e4bd186U,
  0xbcda2e0e3dc6476bU, 0x3e2a780e3e1df6e3U, 0x3e92e9cb3dda5df8U, 0x3e1eddd7bdb05765U,
  0xbe5137bebdbc00eeU, 0x3e1dc4bf3de30fb7U, 0x3e523af23e25389fU, 0x3d57c5053e4d7f31U,
  0xbc90b40e3da6988aU, 0xbd3518853e64765aU, 0x3d0c28c03e8f880bU, 0xbe49b5da3e376324U,
  0x3e7bd9bf3e5bb811U, 0x3e9295843e8eac93U, 0xbe6908bbbd6187e1U, 0x3da4051a3e237762U,
  0x3d054e4dbc2d0d21U, 0x3bfe3a54be0b9914U, 0xbe5cf36a3da71379U, 0x3de307ae3d3dcf48U,
  0x3d4f82b53cdd88deU, 0x3e3c1f82be26a1caU, 0xbe0ee79c3db7496eU, 0x3e1b0ee8be500740U,
  0xbd94b3c13c9dc3a8U, 0x3d30b15abe3c5252U, 0x3c1fa01c3d2c81d9U, 0xbe2defc83e0a365aU,
  0x3c2814b73e095664U, 0x3dd4c8c2bd81814fU, 0x3ac376603dc666b5U, 0xbd7a9b1f3dabe1e6U,
  0x3e344a6c3be427c2U, 0x3e1e5a6d3caf26e8U, 0xbcb1e6bc3d1cbacaU, 0xbbf57ed4bd461149U,
  0xbd17855c3d61f374U, 0x3dbab6843e08a226U, 0x3e541c523cd91f0eU, 0x3e207a953c4b4c66U,
  0x3df06b39bccca2e7U, 0x3d42e62d3dfb7c4cU, 0x3d34892dbe0528eaU, 0xbd2567cf3e29a12eU,
  0x3e3081583e293556U, 0x3d26a9933d0d96c2U, 0xbc268dbe3e6d25b3U, 0xbdd972493ddde78eU,
  0x3df97c513e536d70U, 0x3d73f21c3c42ff9cU, 0x3d52ffddbdba82b5U, 0xbe1e75ae3c9f1a5dU,
  0x3e5a9532be665193U, 0x3e3f70533de7cd8eU, 0x3cd4c2fc3e784795U, 0xbe1e63923e529120U,
  0xbcee91cf3e319cb7U, 0xbd17b10d3e42d028U, 0x3db0c6b63e32bb72U, 0xbdeff889bd1aeecfU,
  0xbd6d86a53c796d33U, 0x3dca3f6cbe21f8eeU, 0xbda01bd0bd43ceabU, 0x3da655153e685649U,
  0x3e48b2e4bc8e0994U, 0x3db608343e6d8666U, 0xbd4f33443e37f7dcU, 0x3dd1ac013d8f9502U,
  0x3b0a08edbd8ba8f5U, 0xbb0a6f133d9781afU, 0xbd915ef33e2bb96bU, 0x3e053a103e15841cU,
  0xbdda6225baa2d89eU, 0xbdfe5ff2bcdf4c4bU, 0x3c65668cbd58ab41U, 0xbdd2beb1ba188642U,
  0xbc8b60e23e18f16dU, 0x3e50ba823e58ebdaU, 0x3e1f2f7c3e27d279U, 0xbd42f0eabdfba1e1U,
  0xbc921e133cb5dcfcU, 0xbe061ab9bc23ac88U, 0x3e80beb23df9d6d8U, 0x3e4a21263d45cf7cU,
  0xbe12aa893e0033a5U, 0x3d615370bdc23faeU, 0x3e6a4e0bbe7b801bU, 0x3dc01a983e1c7ddcU,
  0xbca1409fbd154afeU, 0xbdf35fe63e5c9bd4U, 0xbca4f9093d27f92dU, 0x3ad7e3d63e125b72U,
  0x3da14258bb9fed9cU, 0xbd9279f13e4db519U, 0xbe661f513d37bce1U, 0xbdb939d83e042341U,
  0xbd2bc62cbdfb437aU, 0xbe13a60e3d8323c1U, 0x3dadee923d4daf0dU, 0x3e50d24dbe00ca50U,
  0xbd1417553e23dab6U, 0x3e3bac12bda829a4U, 0xbb42b22bbe4b89e6U, 0xbd4b908abb77a609U,
  0x3da8c5373dacb336U, 0x3d10ffacbdb60879U, 0xbe5d2f6a3d93bd64U, 0xbde00dbfbddbc736U,
  0x3da3d934bdeba019U, 0xbcfd0f31bcbe7677U, 0x3ce2a513bdda3fd4U, 0x3e2a8030bd498bebU,
  0xbe20953e3cd8b684U, 0xbda1a4ad3dc3d931U, 0xbe5664a63defbd4bU, 0x3e6a90a03d804db0U,
  0xbe19a3803e00a4b9U, 0xbc6803633e0e187bU, 0xbd24871bbe6f9249U, 0x3e3f2e4e3df44a0fU,
  0x3e42e2683d20a015U, 0xbddf3193bb4bfc64U, 0xbd3b0c903d772e40U, 0x3d73b90e3d93faddU,
  0xbe754c243d0ec3f8U, 0xbdb1b68fbb0366a1U, 0xbe2069b3be0178ffU, 0xbe23501bbc6f9627U,
  0xbd9d763abddb16f6U, 0x3ca8ed2e3d2237ffU, 0x3d8b52d73cf569e8U, 0x3c76aaa7be00ec05U,
  0x3d32ce9b3e574fe9U, 0xbdf1bb3b3c86a9caU, 0x3e40b7a93d0b1fe3U, 0xbe81172dbd9795d5U,
  0x3d993e113e275784U, 0x3dfab8adbddd57aeU, 0xbd2e638c3e041395U, 0x3d3a5e7dbdb6b044U,
  0x3e599ccbbe5beb6dU, 0x3dfccc4f3dc0875eU, 0x3daa03083cc31b63U, 0xbdf8bbdebdeb6f4dU,
  0xbcdb01c63d17d78fU, 0x3e527a013dabf365U, 0x3e6d02063e2433e1U, 0xbe21c38a3e5b6c1cU,
  0x3e28db20be50deaaU, 0xbe18c8353d401bfbU, 0xbd91f2523d905e67U, 0x3debdbc6be28f226U,
  0x3d64cec8be0829feU, 0x3d1b960c3e3ff069U, 0xbdc5157d3da66e69U, 0x3dcde2023e1ec6dcU,
  0x3e165d203dd619d2U, 0x3e6788f6be6e6f7bU, 0xbd6f0bb73dd37ff4U, 0x3e509e99be6350c0U,
  0xbde4e5cb3d189d76U, 0xbb9ce42f3d4c53f4U, 0xbe21e7f4bddaea6dU, 0x3e407a643e0528dbU,
  0x3c012fc7be8952c5U, 0xbe5cfe3e3da2dc65U, 0x3dad784f3c491ff5U, 0x3df5d3793e55e26bU,
  0xbe0149dc3c50745cU, 0xbd0838ff3e309eb6U, 0xbe6160a4bd03521bU, 0x3c94402c3e5fb5aaU,
  0x3c51aa9c3e41ffb4U, 0x3e45e58d3ddc3d54U, 0x3c0a81b23ddbbeaaU, 0xbd07fe4c3e55367aU,
  0xbdbee5f43c5cb475U, 0x3d02b8e5b9fdc602U, 0xbe519bc5bd4d96d1U, 0xbe20c13e3e6c3da2U,
  0xbe5f8e64bd3d6f24U, 0xbdb13340bdf0da22U, 0x3dca27fa3df27baeU, 0x3da13231bd609e50U,
  0xbd8b0be1be2d42b1U, 0x3dbbc971bd7f2d2dU, 0x3d444feabd910de7U, 0x3dca9955bd63ff1eU,
  0xbe5c1dcfbe4355f9U, 0xbd0123383da2929bU, 0x3e819c52bb62864eU, 0x3df63f133de8ae0dU,
  0xbe028a15be811db0U, 0x3e2035973e1465d4U, 0x3e2287313e74dbe3U, 0x3e139f1d3e3e2d0dU,
  0xbd4caf01bd37c2e6U, 0x3d0124aabd885ff5U, 0xbe5bfdc73e7442c0U, 0xbc9954d7be566c69U,
  0xbcb952c3be87bfe3U, 0x3e3a8dff3d3dc398U, 0xbd25f8c9bdf5a0dcU, 0xbd512ee4be1f543fU,
  0x3d10f24cbe296cddU, 0xbd31d2fabdfc56efU, 0x3b83fe413e525981U, 0xbe01b0193e47073dU,
  0x3da6b4efbbedeb90U, 0xbe0336f63dc3066fU, 0x3c83ec94bdd08f3dU, 0x3e0077373dc2e264U,
  0x3d05ff3b3d1b3a36U, 0x3e0e4a2e3e066822U, 0xbca757fe3e600f3bU, 0x3e52cede3de8a7d8U,
  0xbe2f870dbd687086U, 0xbd73a4aa3d8ddc2fU, 0x3d1ae9f13e04f49eU, 0xbe1a096cbc706efaU,
  0xbe07fe6a3e1c06b1U, 0xbe0f20423d2c5689U, 0x3c27fba23e28e1e2U, 0x3dcf5f18bcc8bc27U,
  0x3e09d4f43dd106d1U, 0xbd63c4223d816a27U, 0x3bd1ea80bde79306U, 0xbd64d4433e454600U,
  0x3e2641ac3de57c09U, 0xbdf60d53bbe0db70U, 0x3d9cd4903e5fbb6aU, 0x3d846917bd63f3aeU,
  0xbd8f4d3a3e23308bU, 0xbd36ce003e294b20U, 0x3e652225bdf12127U, 0xbd7c229e3d624e6eU,
  0x3d59c4d03d210cecU, 0xbe05d864bbf59412U, 0xbe36baa13e5c67a1U, 0xbe40991cbe54d449U,
  0x3df0ae243e1b5a4fU, 0x3dc2bb1cbd621c09U, 0x3e00d19cbdde4fa3U, 0x3d308e3e3d008223U,
  0xbcc1a923bd0247d7U, 0x3e29d9a8bcff41cdU, 0x3dce6a563e34d755U, 0x3d13e469bce066d2U,
  0x3cd5da743e2f8d4dU, 0xbd92003ebe0abd15U, 0x3d8d70be3e0933d7U, 0x3d95c057bd95a07fU,
  0x3d4846033de56695U, 0x3da1c2a63dfc6fddU, 0x3da308c8bd2b24e9U, 0xbd99d706bd2dd19aU,
  0x3e45b620bd706c83U, 0xbddd75cebd902c73U, 0xbe2816883e3696ddU, 0x3bec1cd3bdee0315U,
  0x3e0f7966bd6f0b58U, 0x3dc68a96be20987cU, 0xbdeac52f3e5a7eddU, 0xbd5b20223da832edU,
  0xbc2ae839bd0a825aU, 0xbdfcdbbdbc5c0944U, 0xbd8dfd3abe33911cU, 0x3d9ec27bbd6418d5U,
  0x3cdc22dfbcb1a962U, 0x3d48b2f8bd6096c0U, 0x3e2f41dd3d974b6eU, 0xbcf9ce1dbe1140f6U,
  0xbe8155e03d703236U, 0x3ce760cdbd998f3fU, 0x3d4c75edbc768eeaU, 0xbcfc72d33e3185c8U,
  0x3e5aa796be57860bU, 0xbe7a4d02bd48c474U, 0x3d02e8e93e1863b8U, 0x3e60f152be11e948U,
  0xbe07264f3d78e715U, 0x3e64fcd6bd8b768bU, 0x3e500efc3d560980U, 0xbddb5d833e1316b5U,
  0xbe1b30d63d83a063U, 0x3dc832e93d025a08U, 0x3d8486b43d833d5cU, 0x3e1ba3773ccf4735U,
  0xbe019e61be4829e3U, 0xbe68fb963de7bb16U, 0x3d57fd12be6cb51fU, 0x3e2a9efabca00cf9U,
  0xbe2e43f33d5c57a9U, 0xbe06de843dc7a58cU, 0xbc9e8f703e017a6dU, 0xbe19b7883e08546eU,
  0xbb8cd9f3bdc873cdU, 0xbd339366bb9c27d5U, 0xbd99fd103e896ee2U, 0xbd16e5c53e822b55U,
  0xbe86deaabdbd3df2U, 0x3e2f252d3dfe132dU, 0x3e609899bd634555U, 0xbd71a5be3e60685aU,
  0x3db20ba1bdeb658bU, 0x3d7e7f5c3c5278aaU, 0xbd5bfb6b3e0e85ffU, 0xbe70857cbd49f104U,
  0xbd1026d4bceb9ef6U, 0xbe0daa513e1a1464U, 0x3e80c0a93cbc0c11U, 0x3d8fa74f3d8d1792U,
  0xbdd651f3bbda6e2bU, 0x3d9e63b2bd43ea28U, 0xbdd9fcbb3d19348eU, 0x3e9c11f1bd6b4d39U,
  0xbe6b8e49bda531c1U, 0x3d8793cf3e094e55U, 0x3e169bea3d9e08b0U, 0x3ddb75d03d80228bU,
  0xbe1632753da0e7e4U, 0x3e3960443e123a17U, 0x3d6b0a3f3da27e84U, 0xbc82aa2c3e02fdd0U,
  0xbd63b7a6be3557edU, 0x3dd3475a3930b03cU, 0x3d2023bbbd660c7bU, 0x3e0895d1bdde22dfU,
  0xbe83b384bdff02dcU, 0x3b99982abc1d59b6U, 0x3db5a540bdac25caU, 0x3e5f2f943d2c3cd2U,
  0x3e4b07e33e239a60U, 0x3dbbaa933e3970dcU, 0xbc56ebd53e683ad9U, 0x3e1c805c3cd8abafU,
  0x3d678c243dd22d4eU, 0xbdd08a9bbdfff55aU, 0x3db0eb6ebdeb7d34U, 0x3c1dd390bd66dc9aU,
  0xbd1565fc3daf971aU, 0x3d600e60bd956258U, 0x3dc4893abdaa8729U, 0x3df49f36be30b741U,
  0xbca21948be08e8bbU, 0xbb9991c03d1620f0U, 0x3dbe00ca3d265cbcU, 0x3da4f04e3c10f220U,
  0xbe15336cbd7164c2U, 0xbbbbdaa0bc63bfd0U, 0x3dc54606bdcf8cddU, 0xbd1823e0be33a283U,
  0x3de75b56be13b43cU, 0xbda7f2263d1fd18cU, 0x3df8d652bdad180aU, 0xbd875a6b3d7c29fcU,
  0x3de201a63d6009c8U, 0xbd5ad702bdb220c3U, 0xbca8a3b03e1610e9U, 0x3dd2156ebd4f98e8U,
  0xbdadee40be036eb7U, 0xbbf577203db5ce12U, 0x3e1018553ca8cd40U, 0xbd614c723da4244eU,
  0xbcb561503da4398aU, 0xbe0100dc3ad20280U, 0xbcc07730bd0dfdccU, 0x3e25870bbd2ee188U,
  0xbdcdc77abdcdd0a0U, 0xbc41dae03d8d395aU, 0x3c8c7c80be138f39U, 0xbdff45d0be173040U,
  0xbd91472abd773fa6U, 0x3bc790803be80dc0U, 0x3d0e6d643c81c890U, 0x3dcfa21a3c8966b0U,
  0xbdf30c50bbf68d60U, 0xbe012162bd7313f6U, 0xbdb066e33db20512U, 0xbbe057a0be2bd14aU,
  0xbd87862cbd3ad140U, 0xbe0e3df7bd5e2bd2U, 0xbda523163df7f242U, 0x3d045b943db730daU,
  0x3ddc3d3ebdca418aU, 0xbc80e4b0bd8e6edeU, 0xbb29d4803e0e3a39U, 0xbe064347bd3e5f7cU,
  0xbddd192ebd4608d0U, 0xbdb7da00bc0a0240U, 0x3d4b5fe0bd7393aeU, 0xbb81ac80be02c848U,
  0x3b745480bd1494d0U, 0x3ceaef28be224250U, 0xbd31fb5c3d9b1e96U, 0xbde1153f3d96bd52U,
  0xbd9b81843dbdd24eU, 0x3c86a2f03da540e6U, 0xbd9b58f7be146c86U, 0x3d40e1383bb37780U,
  0xbd4b88503e6f70acU, 0xbcbea5503e42b1ffU, 0xbbaf03223e019e8fU, 0xbcc3cb1a3e2dd6d8U,
  0x3d78a204bcf30d57U, 0x3e827bf3be165349U, 0x3cf9a81bbe097d85U, 0xbc7400b53d41ce26U,
  0x3e304aa3bda9cc92U, 0x3da04d4a3c0ef367U, 0xbbb6c04d3cb5adb7U, 0x3d5696a3be1c8ecbU,
  0x3de343ddbd862fd1U, 0xbdd4a27b3e59938fU, 0xbd2cbec43d1b0f6eU, 0x3dde2f9f3d6239feU,
  0x3c9dcf2ebd3f21b7U, 0xbd4344163e798d7dU, 0x3e109b3cbd93e49eU, 0xbddfe9eb3de88c23U,
  0x3d645b2fbc959d37U, 0x3dfb76c1bdac27b0U, 0x3e3efb8539c3f967U, 0x3db0c25fbcd9ed0dU,
  0x3c8bed423e1692e1U, 0xbe109e17be0f63b8U, 0xbe20e4f53e13f93dU, 0x3d670b5e3e323ae8U,
  0x3d97e225bc291375U, 0xbe49548c3d90d6e4U, 0x3e1513ab3e808190U, 0xbde101063dc1c65eU,
  0x3e01b497bb1d1027U, 0xbe310d543dad5de0U, 0x3da290a33e176419U, 0x3e3fe6343e40bb8cU,
  0x3e0551833d02eeb6U, 0xbe55ecc03e17783fU, 0x3ced33a53e0821e9U, 0xbdce3c473dd72f09U,
  0x3d496bb33c80be9fU, 0x3c8801dc3cc8f221U, 0x3dc93bd0be116a03U, 0xbd78e001bd979f02U,
  0xbdaccfd0be463e0fU, 0x3dae8147bd4bb35aU, 0xbe4d22ba3d83397cU, 0x3d95b59f3dd8b459U,
  0xbd2a3a623ddceb1fU, 0x3e3a47de3e4916c6U, 0xbe4deda03d82b8e3U, 0xbc869587bda8ea17U,
  0x3db407123d03d800U, 0xbcff39953d93e3b1U, 0xbdd55758bdcb9256U, 0x3d5a60c5be3db897U,
  0xbc7e978d3d165447U, 0x3e1ff82c3dbeeffaU, 0x3e2a5b813da6c632U, 0x3d2072cf3daaab74U,
  0x3d35ffa1bd205d1bU, 0xbdee4051bd58fb4fU, 0x3d16ab353df900d9U, 0xbdafd98b3d59d39cU,
  0x3d8d765a3ce3764aU, 0x3e26e2513d022f0bU, 0x3e32d51f3e295cbcU, 0x3dab87483d64fe89U,
  0xbdc34c63bdbcefa7U, 0x3cb335de3dcdf8fdU, 0x3e2e3d80bda837ffU, 0x3e608c513b95d218U,
  0xbdb49542be350d7dU, 0xbccb486abe2d8a8bU, 0xbe6c3b3f3e4b19beU, 0x3c524c58bdab5644U,
  0x3c2f59023e0bbcf9U, 0xbaf6157b3e4fc401U, 0xbcaba144bd0c970aU, 0xbc31c9933e3c8060U,
  0x3e238808bd75484eU, 0x3e6495713e45b564U, 0xbddebf2dbdaed1adU, 0x3e35cbd73e0cbe3dU,
  0x3d89617f3bc9d400U, 0x3e5d5bf5bd7dcc6eU, 0x3dd6365d3d5d30feU, 0xbd01d60d3e2bb95bU,
  0x3ac03881be183660U, 0xbdc96baabd739734U, 0xbd11779bbe011ba4U, 0x3dbe65bb3e57eda3U,
  0x3bd62c7a3dc6f737U, 0xbd3950c63e084eeeU, 0xbe2363993d06ddf6U, 0x3e11a4c63df839fcU,
  0xbc3d8961bd5ac415U, 0x3e1e0c07bd0c7227U, 0xbbc1d8ffbdcdd34aU, 0xbad6e6813d517d30U,
  0x3e435c99bdb19de4U, 0x3d8af29f3d8898c8U, 0xbc9260db3dec2cacU, 0xbd92019cbd1b6492U,
  0x3e6be77ebdd2a41fU, 0xbe7dec403dab7688U, 0x3e15373cbe05e696U, 0x3d1475a63d651638U,
  0x3d83da68bdc4e285U, 0xbe3327983e854c10U, 0xbe2405ad3cfdf0bdU, 0xbe30b7d5be467c49U,
  0x3d7961e93d28d101U, 0x3e20929d3ddc91abU, 0xbdf60d90bd9e374eU, 0xbe405c78bc5ce180U,
  0x3e26e8903e781563U, 0xbe129bb0be3cd70bU, 0xbcbcb4d03d88224cU, 0x3d9e10f8bdd7ffc9U,
  0x3d50c9f9bd879094U, 0x3df186a5bdd28cd5U, 0xbd13fa663d767567U, 0x3e37d6a43d440770U,
  0xbd0995743d6e42c3U, 0xbd35e7353d02c7dcU, 0x3d7e0c843de8bc52U, 0xbd2a5bf6bd014c4cU,
  0x3e99dd173e8a214fU, 0x3e13d6573d176cf0U, 0xbdca1710bc028507U, 0x3db46b5b3e9853e6U,
  0x3dd5bfc6be12394cU, 0x3e5dcb873da917d8U, 0x3d16d88ebd6ea6f1U, 0x3df81f7bbcb21cc2U,
  0x3e6bce13be5b5576U, 0x3dd300d5be64de2cU, 0x3cc5737a3e7f5c03U, 0xbd3d9519bddd9662U,
  0x3d523fea3d2dad58U, 0xbc9f38bd3d6250fcU, 0x3e72ce7c3e4bf21cU, 0xbd8b11a5bd52e00bU,
  0xbe50076e3e11c3e0U, 0x3da8f7a53cd3d311U, 0xbd9f8b56bc7a8604U, 0x3e7dae183d39260eU,
  0x3dd77bb93b86e9b2U, 0xbcb1fec1be3d1496U, 0xbc5f4a1b3e24c1abU, 0x3be7b354bd1e42f5U,
  0xbc67c6433dfa1d8dU, 0x3e33682c3e624aa4U, 0x3ce8ba713c7d999dU, 0x3da6fe883e2476b0U,
  0x3cd93f483df46a7eU, 0xbdfac2ac3e93c5c5U, 0x3e1bf2b53ea60e08U, 0xbd72e9183e2ea75fU,
  0xbdb798253d63f398U, 0xbd2892323e058628U, 0xbdd6f8f7bd47b32fU, 0x3e7be57bbd15e903U,
  0xbe014b3d3d20bfc4U, 0xbc7f812c3de1b643U, 0x3df3bda93dee6691U, 0x3c2f25763d9c14deU,
  0xbd9d65e0bd8367dfU, 0x3c561aa43e4173d8U, 0x3d637685bdc84540U, 0xbb573b723dfe099bU,
  0xbde617493dd5fcd1U, 0xbc9bcc233e00225fU, 0x3d7858c4be3d479cU, 0xbd40a6eabd03848eU,
  0x3dac2db5bd3bbec8U, 0x3c34b1803e2f4e98U, 0xbe3364af3d969787U, 0x3e060a203d63db56U,
  0x3d1696353dcdd0c6U, 0xbe617edabdd0760cU, 0x3dec05a6bd7c92cfU, 0xbd3e33b3be0637cfU,
  0x3e070125bd7989c6U, 0x3dafff7b3d8d3da9U, 0x3e02d4903de1f217U, 0x3e36f4eebd0a8d36U,
  0xbe1954a9bd82ed20U, 0xbab2d784bc62c3a2U, 0x3e3499143e462883U, 0x3d8f287bbd4a0193U,
  0xbe186f7e3d901b5fU, 0xbdaedfd2be8cd0d1U, 0xbe2d16db3b8b9ddfU, 0x3e587492be656f14U,
  0x3c9683203dc91a9dU, 0xbe311b41be0972e7U, 0x3e6473d3bd702d94U, 0xbd784c66bd8d736eU,
  0xbd90085d3b31d989U, 0x3d8fd2d23dc96567U, 0x3e1a6581bdb4d5fdU, 0xbc7149fbbda15a50U,
  0x3d8db0963e5dcc90U, 0x3e80c456b95c6d78U, 0xbe04edfe3dfdc00bU, 0x3e3fbd703e435b41U,
  0x3dc01fdd3e3062a9U, 0x3e445595be03f6d1U, 0x3d7b7c7c3e3d7d25U, 0xbe2b6ff5bdfd37c5U,
  0xbd62f3a5bdd12ebfU, 0x3e5d8c973e855149U, 0x3c80619ebe7eec16U, 0xbcf7c345be2fabf0U,
  0x3dda87ba3e29d094U, 0x3d8876453cd816cdU, 0x3e5d125f3d3a943fU, 0xbd48b980bd2946f4U,
  0x3d28c9a0bd28c516U, 0xbdecc02bbdd9e020U, 0xbdc5df793c20c507U, 0x3da87c5a3dbf8b4fU,
  0x3c537a0ebd893d16U, 0xbdd86b8dbe0564bdU, 0x3de5fd1e3e3b6085U, 0x3d717279be3a9bf6U,
  0x3c9c07bebdc5f85dU, 0x3e50252f3e3ad440U, 0xbe8ac8573e2afbd1U, 0x3e1e40debd367c75U,
  0x3be0ba143e43996cU, 0x3e798c3dbe1bf6afU, 0xbdaffaa33e1fd423U, 0xbd814b48bc9071cbU,
  0x3c4094843c810786U, 0x3c21c227be3531fcU, 0xbd951d7b3e4d5a1fU, 0xbb844cf2bdd0bd8fU,
  0xbc26185f3e15569cU, 0x3c0355d33e415071U, 0x3e07f0c9bd8a42b0U, 0x3de8b556bde8e63bU,
  0x3e21f253bda99200U, 0xbd760023bd1c5ef3U, 0x3e282789bc20d0ccU, 0xbe2b4f983cc68557U,
  0x3e553630bdd4f236U, 0xbe711c7b3d97c43eU, 0xbc7e95b53e1efdb6U, 0xbd7ea0e53df576e3U,
  0xbcc780a4bd9a0022U, 0xbd53fa973d908c14U, 0x3ce0defc3d93fcd0U, 0x3df5f9edbdc58499U,
  0xbdfbad2cbd5fe15dU, 0x3cfa04c23ddaec8aU, 0xbe3e4df4be266707U, 0x3cd4f1e53dcba1cdU,
  0x3e468b253dfca33cU, 0xbdbd9eacbd2090d3U, 0x3e615aa23d90440cU, 0x3b83b19ebdde3a85U,
  0x3da09a2bbdbf8797U, 0xbd8139553e374b12U, 0x3e5d6869be4e5fc0U, 0x3cf161d9bde9d681U,
  0x3e09e879bdb6a4c0U, 0xbc99841c3e5eaa47U, 0xbe0f1474bca3f0deU, 0xbde84842bcf6b0efU,
  0x3e35077abbce1985U, 0x3e27b8e5be38e919U, 0x3e57fdb43dc04ca4U, 0xbdb79cb23e22e7adU,
  0xbc81a1bbbd96d3e4U, 0x3e202e553ddc9edeU, 0xbd31a0853d58c3f4U, 0x3d81c073be6dde78U,
  0x3cae3c263def3d0eU, 0xbe255d7cbd2e959dU, 0xbdbd044cbe1a1c6aU, 0xbdd405ccbe85174bU,
  0x3e06057cbe0d8284U, 0x3cf3f6df3c6c827bU, 0x3d21eb67bd2fdd96U, 0xbd5c1d1c3d9a09fdU,
  0xbe1cbca5bc34117bU, 0x3e655c443c704cdaU, 0x3e23d9adbaf77585U, 0x3d0b2565be310a1bU,
  0x3e56c9acbe29e2f7U, 0x3db503803e13df68U, 0xbd932a6fbe3afe1fU, 0x3d2e8d1d3d8f7c46U,
  0x3b5efff63e1728d2U, 0x3e7d4a85bd8491d7U, 0xbd5f92fcbdaf5529U, 0xbe2e13b23ba883e9U,
  0x3e3dd78f3e2768e3U, 0xba0b4077bd861661U, 0x3e10d649bcdeefbbU, 0xbd96ab293e4b3ea2U,
  0x3e57d4f13e1140d6U, 0x3dbf40c5be19efd1U, 0x3cd20c353dd4e519U, 0xbdd027d33ca97dfaU,
  0xbda9c46fbd85aea7U, 0x3d5dc233bcd261f2U, 0xbcefd1ce3e22ef8bU, 0xbdb62dec3e1ed47fU,
  0xbdc5fa75be0392f9U, 0xbe42cf863c55cb43U, 0xbd7aeaf13cc2d2e7U, 0xbe1bd0393e324c3eU,
  0x3de497f5bdb9bb17U, 0x3d73d9f83e2072ebU, 0xbdb1d68fbd830d0eU, 0x3d4867bdbe16c7b7U,
  0x3e21bbbbbc8f588dU, 0xbe28e0d03e5d5281U, 0x3e2712febdba3eb2U, 0x3d24c0023e64a220U,
  0x3e64641e3e8c3590U, 0x3d21db443d920f10U, 0x3d222a56bca067d8U, 0xbe19496a3e89a762U,
  0x3da4736dbcdbedc4U, 0x3dd0770a3ce0e03fU, 0xbd8e16f13cb9ab36U, 0x3d99bc89bbbfb4a6U,
  0x3d94a2143e5a813aU, 0xbdbb18a83e01045dU, 0xbdcbfcf5be0210aaU, 0xbd9b5d3fbd9ee587U,
  0xbe1643afbddd4883U, 0xbde0cc453e8ca4ebU, 0xbe48ce223dee3099U, 0x3e8a2d863c9063eaU,
  0x3deb31e5bc942861U, 0x3e5588afbd0d4ea7U, 0xbc9cf804bdae65eeU, 0xbdc133883e604f0cU,
  0xbd55581cbce3a5e3U, 0x3e6610be3df252b1U, 0xbe27501bbd4def8cU, 0x3d3a1e1b3df137f5U,
  0x3da29083bd2fb8beU, 0x3d10e61c3cb488a6U, 0xbb9003753dcbb28fU, 0x3db549ca3d12b4e3U,
  0xbdbbb6b23cefafdaU, 0xbd151ca7bd229a08U, 0xbddea8d8be1a852aU, 0x3e8256163e7ddb4fU,
  0x3d4700123d740b8bU, 0x3d20295c3cdec3c7U, 0x3e5665833d351d97U, 0x3e779c28bd8b80f8U,
  0x3e751062be32dab8U, 0xbdee45333db59bc4U, 0x3e20af9e3e2f36c5U, 0x3dcaf5683d5d024cU,
  0xbe1d89253cac07f6U, 0x3e37fa4c3e3075fcU, 0xbd487ebf3e2b1372U, 0xbcaf8ae5be455a00U,
  0xbdb24e98bcd875c3U, 0xbc34cd0f3d24a73eU, 0x3e088c40bd432743U, 0x3d06d2483e2cbdc8U,
  0xbd6a26a93e24ed9eU, 0xbd9143b53db607f4U, 0x3cdb9f09bd5f94c6U, 0xbe73836cbe81ed2cU,
  0x3e44c0453e2f0a8dU, 0x3e8421dfbe18e382U, 0xbc92be263e182990U, 0xbd67c5abbe6ededbU,
  0xbd03932ebe84a418U, 0x3b256d96bbb25b36U, 0xbd19d5e23dae5973U, 0xbe43490d3d983c1fU,
  0x3d319d513dedd780U, 0x3e0aa1c1bd8da178U, 0xbcfe02f2be23e9e1U, 0xbca9648fbd8c1516U,
  0xbe35a309bd286816U, 0x3dd3fa33bd94b2e6U, 0xbe22c1e1be060439U, 0x3e2009143e1bd099U,
  0x3d5d29f73dead8bcU, 0x3ddb03c6be1a483fU, 0xbe1b43613dce7763U, 0xbdd46ce2bd4dbcaaU,
  0x3d94da8bbd44c89cU, 0x3e207ea3bcf5d636U, 0xbb349bb3bd23649dU, 0xbdffedd2be396e11U,
  0xbd2583133c0fcca2U, 0xbdf80a7abe207bb5U, 0xbd8c72b73e29f786U, 0xbc742279bdb2eedeU,
  0x3d8a8f313b83cb82U, 0xbdae55173d99860eU, 0xbdd598babdca9f67U, 0x3e175b86bd745a76U,
  0xbb34f2fabd947d39U, 0xbe1a1633bd05cd21U, 0x3e243d1b3e0d141fU, 0x3da83057be2906a1U,
  0xbdc0c33b3d951971U, 0xbe0f83f43ddd9070U, 0x3de5ffc0bd4605feU, 0x3e21b21c3e29fa70U,
  0xbdcfa39fbdbbeacfU, 0xbe15165cbe20e8cbU, 0x3dba0359bd09327eU, 0xbdfc01dabe193f54U,
  0x3dccb4e03ddde7d0U, 0x3e0952e3bddb1cf8U, 0x3e2473b0be2945f3U, 0x3df2077dbd9a96feU,
  0x3dd10bfcbe10fc05U, 0xbe29a5aebddcf42cU, 0xbd53f9613dc363cdU, 0xbdc6c8bbbe03b93eU,
  0xbd713f2f3e2d09c4U, 0xbe0f33d33d81a728U, 0x3d379db8be1c2391U, 0x3d57fb73bd92d76eU,
  0xbe035bf2bd8ca88bU, 0x3dc3c07fbddc08b7U, 0xbe36a9023d89a670U, 0xbc5f582b3dc21b21U,
  0xbe131b46bd122b89U, 0xbe065dbd3e16ec2fU, 0x3e0c730abd813383U, 0xbdcf45acbe067cb7U,
  0x3c38c27b3d70266eU, 0xbe0797adbd3ecfb4U, 0x3d9d059e3d403df3U, 0xbdf2fd09be1fe83bU,
  0x3e0568bfbe39a187U, 0xbd9f6eb33dfcbe9aU, 0xbddc19bebe223de9U, 0x3dcee3a83df12037U,
  0x3e18dfe2be287473U, 0xbd98b32bbe39634cU, 0x3d627cfcbd8eecfbU, 0xbce5a2d0be09887eU,
  0xbe1a67843e00d413U, 0xbda781b8bdd4d399U, 0x3e34943fbe1143ecU, 0x3d2c6156be001d1dU,
  0x3e297a9d3e2eec0fU, 0x3cc3d3b3bd30a860U, 0x3c8cf01cbdc7ab7bU, 0x3dad6c603e070665U,
  0xbc93215dbd7aa34dU, 0xbcb4c990be073e78U, 0xbdb7e90ebd171c49U, 0xbe304821bd83fc86U,
  0xbe270133bbf9efa0U, 0xbdc38c3ebda6d674U, 0xbcdbccde3e0897adU, 0xbdae173dbddd3e04U,
  0xbc0579e03d75d32cU, 0x3da16372be264d14U, 0xbcd4d9eb3daa882fU, 0x3dac89c83e0b6bb9U,
  0xbdedbd5abe0b52acU, 0xbd6477d43e245e9eU, 0xbe4103493d357c6aU, 0xbd3ac57fb9f6014eU,
  0xbdb3471ebdf60c51U, 0xbdc657fbbd998476U, 0x3d5dddd1bd7cc3f0U, 0x3d80402f3ddb92eeU,
  0xbe126f603daa1c96U, 0xbe08d0093e245363U, 0x3e1befc9bd9fc000U, 0xbe3ca909bd9cf68aU,
  0x3dbc536fbe1c182dU, 0x3aa8a15b3bedc460U, 0xbdd87f36ba4814f7U, 0xbd9623acba93e572U,
  0x3e10a6afbcd18207U, 0x3c74239ebe0450b0U, 0x3d9095dcbd6f0e5dU, 0x3e14f4b3be332bebU,
  0xbe38be92bd0c6c3fU, 0xbdbd8c38be01e1e6U, 0xbe31ca30bd3be456U, 0xbe260d5cbbc81e64U,
  0x3de7005abda2e6fbU, 0xbd5e70303e2531f3U, 0xbe1ab2183aff68d3U, 0x3ca95a8c3ca44fb7U,
  0x3d3b8872bd2f6d24U, 0xbe287275be146627U, 0x3e2285ef3e11a225U, 0xbce0a538be190975U,
  0x3c50f8803e0afebdU, 0xbdd183cbbdd6325dU, 0xbd8a254dbe1cf558U, 0x3bb934ddbc0ed7beU,
  0x3d07ab4c3dcb67f8U, 0x3e07eef63dfb92e5U, 0x3dbcf667bcf9e98aU, 0x3d8ba3be3de03592U,
  0x3b4b3d5a3dd65935U, 0x3d40f742be2e56d5U, 0x3d3192133dfebad5U, 0xbdf2f340bca89218U,
  0xbb1cb2c93e0b1a07U, 0xbd621570bdfdbf62U, 0x3d5d6d943d8f2f2dU, 0xbdc4258c3db80eb4U,
  0x3dad880c3d52a96fU, 0x3e09465a3b994dfaU, 0x3d5723533df25124U, 0xbc2960eabdb0a7b6U,
  0xbdcfc0c8be111356U, 0x3ded9ff5bd5a6fb7U, 0x3e0cf72dbdbfd9eeU, 0x3d9defbcbd956b19U,
  0x3cdfeb623d2132c2U, 0xbdc54b4ebe2b65b3U, 0x3e0bec0cbe2d3f5cU, 0xbdfcfd20be10f848U,
  0x3dd48ecbbe0c84b8U, 0xbdddb5d0be01156eU, 0xbe3c8362bb92dd84U, 0x3dc2a62d3da4f9e8U,
  0xbd3c67973dd70a88U, 0x3e1f1a42bd5cde07U, 0x3c71eb143da9eec1U, 0xbe125a133dff3cfdU,
  0xbd0e640cbcaa36a2U, 0xbd94fdfdbe4772eeU, 0x3dfccdee3d097336U, 0xbd626728bd8ee65dU,
  0x3d3a94663dcb6fbdU, 0xbd6404563dcf5029U, 0xbe0e539e3e1e24caU, 0xbe2464e13def9430U,
  0xbcb902f2bc03a400U, 0xbde8da993cb09432U, 0x3bc0ee38bd954175U, 0xbe38b016be1ed501U,
  0xbcbc20f83c11b38cU, 0x3d4950633e0137bbU, 0x3c0de170be2b475eU, 0xbd22a3cfbe1fce72U,
  0xbe2f98bd3e1d2305U, 0x3cde8bd63e2914cdU, 0xbe2b6092be4014faU, 0x3e1c1170bdc14e98U,
  0x3cc7c0703d556ed9U, 0x3beeb2003e21946eU, 0xbde45d973e0f007fU, 0xbd98402fbe41b3b9U,
  0x3d013e8bbe10c933U, 0xbdfdcf8ebe265eb6U, 0x3cfcc98b3d7e4375U, 0xbdca9c223e0ff787U,
  0x3d135e3fbd692d38U, 0x3d9b9d5abc17d300U, 0xbe071bbe3e28d543U, 0xbe416d633bb18686U,
  0x3d3b5abcbda4a250U, 0xbe3fc1b23dd9b95dU, 0xbdea726bbe1c2daeU, 0xbc5613b7be0a429bU,
  0xbd9ffe1fbe4ecdb0U, 0xbe0c4047be05b880U, 0xbd78898ebcb94a60U, 0x3e61f39bbeaaece4U,
  0xbd3635703e74c7b8U, 0xbe88d05abe2f87baU, 0xbd9e18c23e60e2faU, 0xbe5ffd3f3e018dddU,
  0x3e2d90fe3e6b669fU, 0xbe3984b83d5eed41U, 0x3d51908d3c9cd709U, 0x3e77cfd3be702884U,
  0x3c9994d43e82d739U, 0x3e0f52513df6eb66U, 0x3cffb25d3de79995U, 0x3e3131a9bd29be3aU,
  0x3e4b07f4bd293309U, 0x3e1cd503be5d413eU, 0x3bdccef2bd01f09bU, 0xbcd94f743e05afbbU,
  0x3d054663bdb4973bU, 0x3dd7c085bce4345aU, 0xbde0d2dfbe237bd7U, 0x3e13e2a1be8ea722U,
  0xbcdc6b6f3dea045eU, 0x3c8f16ee3c350e4dU, 0x3a14ab903daa8625U, 0x3e63e801bdba8de4U,
  0x3d1c65b13db17560U, 0xbe6124403e12f1b6U, 0xb92cb837bdfb4bf6U, 0xbe5a6b523e35dd01U,
  0xbdae0511be278e85U, 0xbdbee28ebe8917efU, 0x3e3b22dd3b6045c3U, 0x3d96c18bbdf7b529U,
  0x3e3bdb32be630a0fU, 0x3cf77b53bde7e817U, 0xbea2fe17bdd56f22U, 0x3e2d98c7be197568U,
  0x3c5305503d821fcdU, 0xbc6b266fbe2dcdcfU, 0xbe3835373db116b9U, 0xbe83c3a8bca25aa5U,
  0x3df1afdcbcc360a5U, 0xbcfbd757be8a9934U, 0x3e0d4ef33e287ca2U, 0xbd3d1078bca309c0U,
  0x3e1ef6e83e140fbeU, 0xbe75906b3e0e6f07U, 0xbd76cae83d9e57d4U, 0xbd81e2dfbd86863dU,
  0x3ce1b3a23cce1c4eU, 0x3e08c4c43dad4941U, 0xbdde11ec3e5ed4abU, 0xbe4a2505bd9807a9U,
  0x3e158f603e2c8762U, 0xbe1ddf5d3d17aa81U, 0xbded9fdc3e249ff1U, 0x3df12a35bdb94ed7U,
  0x3e5fa73ebdc3e8f8U, 0xbd42d6df3d8849a3U, 0xbdb1a8ad3d2c318eU, 0x3c8b51b1bdd450e4U,
  0x3dff83c23d4fc789U, 0x3e26b710bc26db24U, 0x3dfc7ea6be5a8a8eU, 0x3e5d7c703e2d6bd6U,
  0xbdf9fbe83dd8da83U, 0x3e0c9bd63ca12eebU, 0xbd20c49dbd9dd242U, 0xbe0955c93d1e9287U,
  0x3e0c0a2fbd8aa041U, 0x3d9b4abe3c80bba5U, 0x3db817f7be2d31e9U, 0x3d094553be0e2fc6U,
  0xbdbee26f3dd474f4U, 0x3da3725dbc9a4f81U, 0x3c9966cf3d989ff8U, 0x3e411bdf3e3968d7U,
  0xbe1b7ae8bc8d2801U, 0x3e2073ab3d537924U, 0x3e5bafb63b933ffeU, 0x3db387e3bd63c640U,
  0x3de558a83e728361U, 0x3cae5df43dee3803U, 0xbe0e2e77bda5165aU, 0x3e05b2b33d136f6bU,
  0xbd686235bddb72c3U, 0x3cf6fd4ebd1013cbU, 0x3e2582a03d6c5861U, 0x3e288810be64cb92U,
  0xbc01490a3e042487U, 0xbc40b2233d8616e9U, 0xbdfddd0abe2db1d9U, 0xbaf12ae03e581c9fU,
  0x3e5d99233df5c1c7U, 0x3e1f8fcd3cfc2c46U, 0x3dc26ba33e57a8c0U, 0x3e724c52be0f1ae3U,
  0x3e460877be102d0aU, 0xbe11867d3be2705cU, 0x3c6f5ae53e27cd6aU, 0x3d24a019bdcb032cU,
  0xbda998f33d13a987U, 0xbe3e95213dfc77baU, 0x3e719a543b667bf5U, 0xbc986ef73d47fe45U,
  0xbe3bd457bdc53719U, 0x3e605efe3d1243a6U, 0xba109ca93d739f02U, 0x3d892cfa3de937f4U,
  0x3e1241fb3e66f002U, 0x3e032dda3d3a8126U, 0x3cfd8fc2be06ce67U, 0x3e0005c5be0c179bU,
  0x3de7ce7c3e6e3d5dU, 0x3d94e4e03d1f1472U, 0x3e70c9a33e25029eU, 0xbe3a61073d7854cdU,
  0x3d5667063e42b46eU, 0x3e011a6e3c3652beU, 0x3e52e1bb3d69aa50U, 0xbe41464f3e38aec1U,
  0xbb64e8cdbdbcd653U, 0x3e251a2abdcc370eU, 0xbce8128cbe454390U, 0x3e6e106f3e2ea05dU,
  0x3d11e7dabdd35b06U, 0x3e7564b2be3d8b35U, 0xbe58c498bd8594aeU, 0xbc2aca9abd963a52U,
  0x3ba506683deaf7edU, 0xbe5ca0dabe1beb12U, 0xbe14391bbd95bcefU, 0x3df051ab3d345980U,
  0xbe056bbb3d8dfc69U, 0x3e42c7823e0f1c63U, 0x3d9580063e46fe6fU, 0xbdec1c9e3ad73c4cU,
  0x3c53a627be10b5a7U, 0x3e06a5fe3df96370U, 0x3e38fe503dc103a3U, 0x3cd25ea3be470c93U,
  0x3d735bc7be573e18U, 0xbe034c57bbecc2f2U, 0xbcdff1df3d7aaeb3U, 0xbe114ec5be00588cU,
  0xbe55fb58bd49f357U, 0x3cb481ab3dd8e461U, 0x3e188cec3d037932U, 0x3e2fbd213e1a6202U,
  0x3dad2f263c534215U, 0xbe2f7b053e21a4dfU, 0x3e26aa2bbdaa5c68U, 0x3dbf3d0fbd2d74aaU,
  0xbdf757f9be031edbU, 0x3e29924fbe4808f9U, 0xbd4a30553de87012U, 0xbe159ac23e2d8c5aU,
  0x3d06ab343ce1c618U, 0xbe39a6bd398b6da7U, 0x3cc6dd1b3d7406e9U, 0xbd6ee147be43cec4U,
  0x3e024099bde66e23U, 0x3c5c8f023e0de0cbU, 0xbd516c0c3da944d4U, 0x3d74ebe6be45d53dU,
  0x3e0835ea3da4027cU, 0x3da9439f3de200f0U, 0xbcf7913d3cf8e8eeU, 0x3e40d8e3be54bd9dU,
  0x3d9dfed43dbbda20U, 0x3da63294be21afaaU, 0x3ddf52e9bdf12f47U, 0x3de790a33da43df7U,
  0x3d56ac06bdc8e15eU, 0x3de6e4563e0364c5U, 0xbe55e64b3d92b30fU, 0x3e458fad3c7f5d5aU,
  0xbdcdc36ebd28d316U, 0x3c64c7adbcb38bf4U, 0xbe4c91cfbd203465U, 0xbc048719bdca8b66U,
  0xbe3aedf6bc007d79U, 0xbe19c8fe3d4ae397U, 0x3e38743ebe51f72cU, 0x3dd17d8f3d8aa3f7U,
  0xbde70760bd0e1a9dU, 0xbd9106dd3e575f54U, 0x3e41bdf13bea16dfU, 0x3e33f7b03e0ddd88U,
  0xbdd8de0dbe36e4b5U, 0xbe01e06f3e6b0fc2U, 0x3e60298d3df7a7d1U, 0x3e86adfc3bb46348U,
  0xbdce6c393e7330e7U, 0x3dc7b95e3e558148U, 0x3c2bb898bdc7147cU, 0x3ca9d2993e1dec10U,
  0x3d467d5f3c0a83f2U, 0x3d5627a33e4d6c06U, 0x3e5076de3dae6dd3U, 0x3e0ae64dbd8250d9U,
  0x3e6ec79b3e61c1d4U, 0x3e586650bd8c7cbbU, 0xbe52db253c92fed4U, 0x3e496529bd3cc5bbU,
  0xbe4f23933e54b913U, 0xbdba30e53e6407ceU, 0xbe1dd1373e0526dbU, 0x3d844b49bdc53d5aU,
  0xbe0e288e3c05a99bU, 0x3e365ab33cadefa9U, 0xbdfa240abe41e3dcU, 0xbe76a6093e38d06dU,
  0xbd57aa76be2388ceU, 0x3c845a313df1b1e9U, 0xbe7d02d23d9209caU, 0xbe1d9a713e279138U,
  0xbe125d693e02383eU, 0x3e41383b3e2dd2b3U, 0x3e858138be884a44U, 0x3c57539ebe3e2cecU,
  0x3cc61125bdb20e8eU, 0xbcd854f83e80e3c2U, 0x3d1f8123bddf9cd1U, 0x3dee97e53d73d04aU,
  0xbd1ecc6f3d5f89baU, 0x3e3fdf053d5394e9U, 0x3e2def0a3dd81e91U, 0x3e3ce0e6be0cedb0U,
  0x3e7c385c3ccb1fcaU, 0xbb9b8422be221f18U, 0xbdcdff173e32824dU, 0xbd1b66753caa599eU,
  0xbe6f2667bd542fccU, 0xbe05a0133e6860a7U, 0xbdc600f33e2ce7e2U, 0x3d98bef33dd507e2U,
  0xbda1c3b8be3e7652U, 0x3e5b3748be362657U, 0x3d8260223ce2ece3U, 0xbcb001863e00d2acU,
  0xbe2e5d2a3e1d7d1eU, 0xbd38f916bdba05d8U, 0x3dac9d09bdb0a427U, 0xbd166c3ebdbeb736U,
  0xbc92c2523df8dbbeU, 0xbd1300a23daa4976U, 0xbc1c70b63df5c4d4U, 0xbe817fd5bd9b8865U,
  0x3c62780dbd7fdd48U, 0x3d6113e43c9d1a6bU, 0x3d87cecc3c7e142eU, 0x3defe5b8bddbefcbU,
  0xbe5addb1bd45233dU, 0xbcfc366d3e285654U, 0xbe297bd3be8dadc7U, 0x3e0999ab3d8d30e9U,
  0xbdc830fa3d0b926fU, 0xbdbeb7ebbe1a8a20U, 0xbd56ce223e3ce5faU, 0xbdac83eabbf0c487U,
  0xbca61d7bbd9fe27cU, 0xbdc0e1df3dfd7363U, 0x3d75057dbe3aa589U, 0x3db4e758bd41e993U,
  0x3e018378bdbc7cbeU, 0x3e0190123bcb32b8U, 0xbdd518fc3d4cf741U, 0x3c3457debe241330U,
  0x3d95efc53e0273afU, 0x3dd22e65bde87f10U, 0xbb8afc8bbd8ddc7bU, 0xbdc2bb1cbdf1a81cU,
  0x3d35aea7be4224d2U, 0x3c2018f53cffdfdbU, 0x3ddf913ebd0d26b2U, 0xbd65f7f3bda1b10bU,
  0xbd8760c7be34ba15U, 0xbe15fbc23d518006U, 0x3d871d84bcf6da39U, 0x3c8014033dd28d6aU,
  0xbe1b69013d96c403U, 0x3d949391bdc2bcaaU, 0xbd715ec8bdfbc269U, 0xbe2f77a63e1324f6U,
  0xbe3cb8b2bdfdd7baU, 0x3c4883febaee651eU, 0x3d0acef5bd52a196U, 0xbe8a34b2bca74a98U,
  0x3e0077e93de06a69U, 0x3cdad1aebe2cfffeU, 0xbd9b8a1fbe41f989U, 0x3dd5d8c6be4571cbU,
  0xbccc8c9e3dd4e8f3U, 0x3d41dbc4be1c743fU, 0xbe4b81b83d603533U, 0x3e059417bdf6010bU,
  0x3d889b32be05e41eU, 0x3dda4cf3bdb8fd91U, 0x3d82eca53dc280afU, 0xbe323a493995efc0U,
  0x3da8397e3d6fca40U, 0xbe0de52f3e25e3b4U, 0xbd473bb83af01f54U, 0x3ad7b7c93c042f99U,
  0xbe0d01c2bd24455dU, 0x3df0cb72bdb391d3U, 0xbe64df213cbb4b4fU, 0xbd9f209c3d5a9cfbU,
  0xbcad32263db95349U, 0xbdc483c6bd37728aU, 0xbe2deef1be591139U, 0x3d48f46abd45e580U,
  0x3e339dc4bc8201c5U, 0xbe072303bc82a546U, 0xbe0d54413dcc0f0cU, 0xbd1689873d2e2ab6U,
  0xbe5f1dc73e16170cU, 0x3e37991a3e51520cU, 0xbde64ca8bdd247c8U, 0xbcf637d9be127b59U,
  0x3db5e261bdd5dff6U, 0x3d3e4ad73def1cedU, 0x3dcaf00e3d2d2d4cU, 0x3e38b4d1bd66e643U,
  0xbc0a806ebe1ed705U, 0x3c88cde8be2399daU, 0x3ddccad33e66dc5dU, 0xbdb8f2763e0f6cb5U,
  0xbbe6e16bbe3dff98U, 0xbe01d0d13dab6346U, 0xbd7732dc3def9fb9U, 0xbe29fd5ebd2c1809U,
  0x3d424e22be0e7ff5U, 0x3e07643a3de83dbaU, 0x3b3f8d633d28aa73U, 0x3dc6f327bbc51368U,
  0xbc98fc063db2aa69U, 0x3dbbccff3d8705c7U, 0x3e36d22f3d0923b4U, 0xbc8da20f3ddc8ffaU,
  0xbd184e313de5f7deU, 0x3e1e2c1d3e7198f5U, 0xbd9f3fb43dba73fbU, 0xbd9e153fbd8b1a19U,
  0x3cb8d29cbc66ea17U, 0xbdc59c323e4c801eU, 0x3e109b853e538fdcU, 0xbd5b49903cc244d6U,
  0xbd4a8f9d3e5f553eU, 0x3d71c3df3df18b1aU, 0x3def6e703c379480U, 0xbcf5e9e23e1eb453U,
  0xbe2cd7733cdc8d06U, 0xbe2155d33d608082U, 0x3e7087943dbd640aU, 0x3c2b7a8d3d91a295U,
  0xbe090f9abe5c177dU, 0x3dfa32823dd1e4ceU, 0xbe425ad9bd836711U, 0x3e5af3053e0e8ee1U,
  0xbad5bc933dd3b2ceU, 0xbd961f633e4f1e4eU, 0x3d2a60ad3e2b2a76U, 0x3da82aa13daa195dU,
  0x3cf1133e3dd6295dU, 0x3ddb8887bd37e260U, 0x3be8970f3dddd3bbU, 0x3dbffd50be1ea13fU,
  0x3e59cd67bda4b8adU, 0xbd7aa93c3db34cbbU, 0xbe071e253dd5fb7bU, 0x3e5a46cebdc7f71dU,
  0xba9b167fbe5c1fe8U, 0xbe2846d1bd6ce23aU, 0xbcf99d603c92072dU, 0x3dbdbfd33d5fa0e6U,
  0xbd32d8d33d0a6916U, 0x3d247d793c78bf6fU, 0x3e2a96113e4050d5U, 0xbdd93d67bd8040f1U,
  0x3d27e2293e054607U, 0xbc9c8562bd862398U, 0xbe413e173dbe27f5U, 0x3d91fe29bdf30037U,
  0x3e2852a53e30051aU, 0x3de62f8ebd9d15a8U, 0x3dbe84f33cbf43f0U, 0xbbf525283ce571dfU,
  0x3b3d8ce33dc456d3U, 0x3dfeebce3dc40f05U, 0xbc8d1d573e38de47U, 0xbcf29e8b3e1fa1a6U,
  0xbd5f00543e59ca2dU, 0x3e574ee23d4e9ddeU, 0x3e283f91bb013d2bU, 0x3c89a2a83e1945c0U,
  0x3e1bc77cbd796269U, 0xbe1018853d8b8d41U, 0x3d1dca7d3dcec20bU, 0xbe6b93c93daa92fcU,
  0x3e4ae43d3c7266e4U, 0x3d63339c3e80a312U, 0x3e408551be12a3f9U, 0x3e0984843d4b2d4fU,
  0xbd9fc9f73e7952cfU, 0xbd126c86bd45f2a1U, 0x3e38fa553e431428U, 0xbc002dcfbd1404dfU,
  0xbd804dec3b9bb5ebU, 0x3d1c119e3d14d419U, 0x3dfe150dbcb035caU, 0xbe5109f63e55c2d1U,
  0x3dacac913d7e698aU, 0x3a672772be7bd031U, 0x3dc69b193e4d71d5U, 0xbc5a5903be476172U,
  0x3ddbf25bbdb70489U, 0xbd00d2e73db139d3U, 0x3d5e6dd53cdc8d97U, 0x3e8142503cf3a603U,
  0xbe72baea3e25975bU, 0xbc338da13d983bbbU, 0x3d9195033e6ffa1eU, 0x3ca4ac89baf878e8U,
  0x3e309dfebe03301aU, 0x3e0c51003de4e020U, 0x3df1f03a3ba70961U, 0xbc99bc843e479d62U,
  0x3e16e12d3da54e38U, 0xbe6ac5803de1ff80U, 0xbd0cc1d4bbddea4cU, 0xbcbe5e90bdf07587U,
  0xbd1d38ddbe33c183U, 0x3dfafea63e5dd503U, 0xbe3cf8853d2fd133U, 0xbd5698c9bdd927f5U,
  0xbd4643b6be2e94d3U, 0xbd730dc73d82e4f4U, 0xbde07cf83e02e684U, 0xbdf287813ba7dafcU,
  0xbe0584c13c793fd5U, 0x3e3e30d53d6b2d2aU, 0x3cd5cb4e3db5b6b4U, 0x3da6b22b3e73aaa0U,
  0xbe9a6fb6bd9af111U, 0x3dd9de01bdaa9491U, 0xbb519070bd973813U, 0xbd94aba6bca14e22U,
  0x3e8486973e24f4a1U, 0xbdfdd3f73e010b77U, 0xbcaeac98be1eb39fU, 0xbe6cfe78bcf244b2U,
  0x3dc730983e77c07bU, 0x3dc5406d3e2ca46eU, 0x3dd50475bd7ee439U, 0x3e7fd5803d738e20U,
  0xbb8e3e653e04d4a7U, 0x3de7a0fa3dcfaadcU, 0x3d5c5055bcc211ddU, 0xbdd04211bd71d6c1U,
  0xbd1b0e27be611b76U, 0xbe04b110bd5c6529U, 0xbe13e099be339e05U, 0x3e3c2249bdab579aU,
  0x3ca5c8523ca5794cU, 0x3c8b29493e30ccdaU, 0xbddc25133dd84a90U, 0xbced27983dba9222U,
  0x3d1d3d083d1e4d6cU, 0x3d3a01323e084db5U, 0xbe42081dbdf057b7U, 0xbdb151f63dc77f6dU,
  0xbe04500fbd30ac76U, 0x3daadabcbdf63b35U, 0x3e13ea34be083c05U, 0x3e34022d3e0d6200U,
  0xbe4f481cbe84ef50U, 0xbe88f63c3d871c68U, 0xbdcba659bc8ee92aU, 0xbe5bcff8bc78a89aU,
  0xbd1a25513e14475aU, 0x3c808bfa3dcca6e1U, 0x3d2024263af0d742U, 0x3e0025fcbe5ad944U,
  0x3de6692ebc89e51bU, 0x3e965e82bd11cc4aU, 0x3c699b29bdc7e409U, 0xbd4d39713e0ed05dU,
  0xbd7de3873deebdefU, 0x3e321cb9bdd64979U, 0x3e9130c63e3124beU, 0xbe332c073dee0527U,
  0xbd924fe03d2cac20U, 0x3d2ed7e23c5cef15U, 0x3e6ad9133b8455c7U, 0x3d34a031be656399U,
  0xbe4f8c2cbe6447a6U, 0x3da8a1ddbe4cf0deU, 0x3e6cb59b3cb851eaU, 0xbcbd09babd9a9d66U,
  0x3c91ad20be2aea33U, 0xbe5d942dbc8543c3U, 0xbd0fb0f83db9c419U, 0xbe36c7743d21d22dU,
  0x3e0f1eaebda6b880U, 0xbdc516413dc29e0eU, 0x3c33fd693d5c0ae3U, 0x3d7944f73e2d7378U,
  0xbd3bad47bc41c2beU, 0x3d108c283dd7eb25U, 0x3cbe56bebd66cf27U, 0x3dcb12eb3de8bdaaU,
  0xbe4ba9c23e3be551U, 0x3e791ecfbcbc30d7U, 0x3e6487393d4c7134U, 0xbda981193e6c31c2U,
  0x3e5df9f93e297595U, 0x3e2d93123b67689bU, 0x3db9d8083de05ecbU, 0xbd62a2483d82f2deU,
  0x3d37fef53c0cf388U, 0x3d43296b3da69f9dU, 0x3db2d757be46e229U, 0xbc9d06e53e272c34U,
  0xbd8045f83c9d344dU, 0x3dae854c3e0c9d11U, 0x3d800e0fbc529d19U, 0x3d60a24c3de5f808U,
  0xbde5730abd9846c8U, 0xbda12c92be50d4f3U, 0x3dbbdae03e23c46fU, 0xbe5d80513e0448c7U,
  0xbdddbfba3ddfa71cU, 0x3e1c7823bdacc1f0U, 0xbd7ecd71bd90b367U, 0xbd31660f3e77d706U,
  0x3d9243b6bd92caaaU, 0xbccc26f1bd4fe8a2U, 0x3d92f9613e2aea63U, 0xba2e97f9bdd97abbU,
  0xbc55d79b3e1018daU, 0xbe0f4a413e119e9dU, 0x3d983862be2c2c15U, 0x3e59ded83daf3060U,
  0x3e4193c03e9ba230U, 0x3dbf1ba1be3bb728U, 0x3e2332ec3e4fc20eU, 0xbdf423733e8bdcf3U,
  0x3e92e7d53dbfe680U, 0xbe10b14d3da46fb7U, 0xbd4359cf3e4871d2U, 0x3c4e7d8d3db08b7dU,
  0x3d9a1fb93e010a8cU, 0x3c5ab71c3d5d9ab5U, 0xbe762838bd9da016U, 0x3b26d4a9be25d400U,
  0x3ddc1982be1c00dcU, 0x3e03c53a3d69a2cfU, 0xbda826a3bc97d0dbU, 0x3e1e77f5bc1e33beU,
  0x3dc1a22ebd542e78U, 0xbe5be34dbe871941U, 0x3da7df7fbe8a0cafU, 0x3d7d21293cb2f8c6U,
  0x3c03c8203e1bcc77U, 0x3de3cf4c3d5b74d5U, 0xbd59bc463e1edb56U, 0x3dfcbc05be6173c6U,
  0xbca42ee9bcdf3edeU, 0xbe5dceadbe0ab9deU, 0x3d0f9197bd8152efU, 0xbd60b94fbe111825U,
  0x3e7659943def2f6cU, 0x3d549b903e325f07U, 0x3e106a4f3e03ff68U, 0x3e7152453d6ecd48U,
  0xbe7029f03db8cdc3U, 0x3e203d55bd71f114U, 0x3e486e8e3ca93909U, 0xbe62a07c3e29fa6dU,
  0x3e24da6dbde7f546U, 0xbe8b9044bcbd3163U, 0xbbbca8febd27cb5eU, 0x3e1c1424bdf20a33U,
  0x3e427b763deb233bU, 0x3c8bb6c23e62aa5eU, 0xbe4cf8863ddf5e0bU, 0x3e3bf8133c225f4eU,
  0xbe48b126bda1bd34U, 0xbd1051423d2cb7b7U, 0xbdec50e23e7a6c09U, 0x3e29a083bd61b5bfU,
  0xbe0fb12a3e1df352U, 0x3e5d15a03d878075U, 0xbe05c136bdc6f76cU, 0x3d37ba793cd55665U,
  0x3e091e1fbdd4e8e8U, 0x3de56d37bcdbcad7U, 0xbdce803b3b36bc81U, 0xbe0c0b51bd81c937U,
  0x3e0af45c3d031d1cU, 0xbe2324603e34b517U, 0xbe77a48d3e288517U, 0x3e5701a93b96df3fU,
  0x3e04ac193e10b06aU, 0x3d914f443df8ea24U, 0x3d718038bd6d6adbU, 0xbc9ac23bbd9facd3U,
  0xbcf58ac9bcebc3feU, 0x3ad189ecbe559932U, 0xbc910bbd3dbbe15cU, 0xbda84fb7bdd2c1ddU,
  0xbd63654ebe6304d6U, 0xbd11f865bd83671aU, 0x3e601bb33df4a316U, 0xbd51cd603d6a0207U,
  0xbe360c093df6af38U, 0xbdd757a73d004684U, 0x3db65be6be0601f0U, 0xbe4c628bbe0604f6U,
  0x3def8a5bbe604e2bU, 0x3deead56bd259826U, 0x3e1e0c93be80d041U, 0xbe9d84d13e6925baU,
  0x3b4b43493db383b5U, 0xbe18e35a3d504495U, 0x3e1dfc19bbbc01a0U, 0x3daa2d813c4ab957U,
  0xbdc01ac13d08ad90U, 0x3e689b6abc8abd9cU, 0x3d88df543e7ad4c7U, 0xbe1c2e4fbe329bd1U,
  0x3e286ababd0092a0U, 0xbdaec2dcbe3c273dU, 0xbdd1436ebe690c7eU, 0xbe4f96993d3d5285U,
  0xbe12e098be4bb385U, 0x3ded0ea83e093cbbU, 0xb980f7993e0e748eU, 0xbda0d975bd76717fU,
  0xbe042ef8bdd65472U, 0x3d25be293e0a384fU, 0xbe1d4bcf3dccad3dU, 0xbdf4abae3e3c1085U,
  0xbdd54ff9bc45983dU, 0xbe1c6196bdc2c6deU, 0x3da280febce50731U, 0x3c0dd37abd87951fU,
  0xbe3795c5bdddfadbU, 0x3bc612983dae4181U, 0xbe4cad7bbd110e9fU, 0xbddd61e13e15f810U,
  0xbda6c6d6bdf400f5U, 0x3d8748643e0eeaa7U, 0xbe2f9498be1d368fU, 0x3de7784fbe17328fU,
  0xbe240f39bddc778eU, 0xbdf9fc4b3d41cf82U, 0xbd3d4f98be39cd26U, 0xbda7be073da4866cU,
  0x3e07325abdf04b21U, 0xbb7125d93e0534a6U, 0x3d1edf3fbd0907a9U, 0x3d3a80073dc73675U,
  0xbb9b507b3d8001c0U, 0xbd0abddcbe16ea09U, 0xbdcec573be1bbf66U, 0xbdbb91433e09eb41U,
  0xbde91518be0ba518U, 0xbd8d73343d7273fbU, 0xbd21da5abd0e69adU, 0xbe2a2e5d3d0e1dd7U,
  0x3e13a7c5bd2e41bbU, 0x3cbdb8263e1a917dU, 0xbdbebb77be13552dU, 0x3d0802c23e13e3e9U,
  0xbd70c5573de4a5b5U, 0x3d70798f3de8c224U, 0x3db6cc77bdcf3463U, 0xbb396429be0914fbU,
  0xbc8e44583e261560U, 0x3d89ef653dee95edU, 0xbe16030239272c62U, 0xbc09f0263dd04aa3U,
  0xbb0a4677be373188U, 0xbdddd622bda5fb7aU, 0x3e04009fbe165e26U, 0x3d92d7fe3a0be891U,
  0xbe03debf3c334509U, 0x3df536b4be1a4a96U, 0xbc8f06573da5c1b0U, 0x3d873df73d887cbcU,
  0xbbf66c233d71c649U, 0x3d9015423d1b1056U, 0xbe17000abe1004f6U, 0x3dd90e94bde4cc7cU,
  0xbd47b606bd7202c7U, 0x3db9eeccbddd42afU, 0x3dcda1f8be26f621U, 0xb9d8124bbe21c25dU,
  0xbd9ec6473bc54d4eU, 0xbd8e24063e4e9d01U, 0xbe13d58c3e056a78U, 0xbd3be6123e0f5e6bU,
  0xbe0b91623d99fcb0U, 0xbd8abe56be5f9fecU, 0xbd3d470a3da9a6b3U, 0x3df89f683d4d8281U,
  0x3d05bee9bd9c1791U, 0xbe1876d5be274eedU, 0x3e0e9a1f3e09f15fU, 0xbdb515363cf622feU,
  0x3bfec04d3e3f36feU, 0xbe3a561c3e5b836dU, 0xbda24b41bae620d4U, 0xbdf6faa03e5a19ebU,
  0x3dec30dc3d4a97bdU, 0xbda0a8d13dd3a2b7U, 0x3dc575773d108e94U, 0x3e3c27a5bdcdb399U,
  0xbd389f583e558b1eU, 0x3e2e9b79bd67595eU, 0xbe1ce4b3bdd9f347U, 0x3cb6eb06bda6fd66U,
  0xbd9ec4f23e6afc27U, 0xbdff32a73da7f4a8U, 0x3d5cda1b3da289d4U, 0x3e655254bc86e1beU,
  0x3cdad3453e40c9d1U, 0xbc1facdd3e7865d4U, 0x3bd9fd883d9fdaeaU, 0x3e0b77b3bd2222afU,
  0x3d79f571bdb57d1cU, 0x3e6a208c3e295cbbU, 0xbcc46fa7bda3740cU, 0x3d2c72a63c5d7defU,
  0x3c2efa15bd81faeaU, 0x3d177880be15f48fU, 0x3e3eb0933c279678U, 0x3cc0837f3e560e77U,
  0xbd323c843e10cd42U, 0xbdec016bbcb12389U, 0x3e4b30ea3e3d34b6U, 0xbdf572983da9a315U,
  0x3b0b3198bd4ad2f8U, 0x3d8ccb563d8dad05U, 0x3dce03de3d365e70U, 0xbdcbc1e3bd80a431U,
  0x3e647c403c9af2bfU, 0x3e1732353d3a22bcU, 0x3e13d7db3d453fe8U, 0xbe2400983db14792U,
  0xbbe22d3e3e3e4de7U, 0xbda7e7b8bdb5adcaU, 0xbd73a2063d92461aU, 0xbd2be83a3ce8b539U,
  0x3e145d823e5d565eU, 0xbd932bb13d322eb5U, 0x3c507bb93e1fcfe7U, 0x3e625bde3e7bd6daU,
  0x3cdb9365bd9eed9bU, 0x3e0d99013e1283b1U, 0x3dc8b6d0be2a91b8U, 0x3df10b35bdf08679U,
  0xbe5e7f243e1a4c9aU, 0xbd15ea903dc8a9c6U, 0x3e0082a93e00db40U, 0xbdf6dbbe3cc7ba68U,
  0x3dc146adbe5c7b62U, 0x3dbabdd8bd85d45fU, 0xbe469b3b3e2dc279U, 0x3e0ff39ebcffd096U,
  0x3d09128fbd582aeeU, 0x3e7cfc71bd6953d8U, 0x3e051232bdce9931U, 0xbdcd8bfe3dec6f2cU,
  0xbdda2665bd31fa93U, 0x3e0c74ccbdf72c50U, 0x3cfece70bdb2742aU, 0xbe3542d63da65207U,
  0xbc50a29cbd8f6b22U, 0x3d7a878c3df90d9fU, 0x3dd14a4cbde1b6fdU, 0x3e1116cfbc24ec4bU,
  0xbdcc07c3bc5ddec4U, 0x3bc21949bc2c7820U, 0x3e38af0e3dded065U, 0x3cd696fd3daa3c06U,
  0x3d41bd49be165d9cU, 0x3e6ffd1f3e523700U, 0xbe16827d3d7b246dU, 0x3d1656f1bd91e8f4U,
  0x3c68adf63e1ad3e9U, 0xbc8918efbb78b828U, 0xbd2227b13e0a272fU, 0x3e13ede2bcb9a2d9U,
  0x3d08186b3d12b87cU, 0x3e114744bd88d474U, 0xbd3c668d3db0bbf9U, 0xbd4147a6bd264538U,
  0xbe5843b03e059dd5U, 0x3cf9615f3e06c942U, 0xbb81e54e3e824022U, 0x3d127c573de78c5bU,
  0x3dff21b43d138c0bU, 0x3b9771eb3e797f41U, 0x3db95040bda0d751U, 0x3e51cc0bbd0d95e1U,
  0x3d14d2bfbd890d59U, 0x3e31e1e13c4b847eU, 0x3d8a3ef93e6a4a47U, 0x3e737dfa3dc4c5feU,
  0x3d8996f5be1e3a18U, 0xbd1cdd5fbdb0548bU, 0x3de96a5c3d11950bU, 0x3dada5b13e2b6708U,
  0xbbb408c63d2888e9U, 0xbb5bbc35bd3d4c1fU, 0xbe650a8b3c8675abU, 0x3dbcb777be4a7352U,
  0xbe3ea68dbd3dd9e7U, 0xbc46a4fa3ce446bfU, 0x3df013113d46c603U, 0x3dc20c83bdba4a5dU,
  0xbe4f38513d292b40U, 0x3e15bc0abd40c6b6U, 0x3e726f2d3d9b7d7dU, 0x3d8ab95f3d0e74bdU,
  0xbdc042c93e12bbf1U, 0x3d3ccef8ba5a5971U, 0x3d6091adbdf128a4U, 0xbe6071c13ddb7bd1U,
  0x3e194f0cbe258d28U, 0xbe1516393e4ed442U, 0xbe4a2ac6bdf28ed4U, 0x3e5553213dc553fcU,
  0xbdd2b9553da80a4fU, 0xbd6567c03e24f9b3U, 0x3e24aa3c3c8a085aU, 0x3e0dcbe23de97448U,
  0x3ddd02ce3d4646c0U, 0x3e026d61be2bd6e8U, 0x3e37949cbe054f11U, 0x3e0a0a363dab8285U,
  0x3dfd5f13be480a53U, 0x3dcf7b92be1bff4dU, 0xbe6270133c6428c7U, 0x3e3deecdbd47a314U,
  0x3b3e99d2be6a2931U, 0x3d9dafc23d979e62U, 0x39998f683e32eb77U, 0xbdff48e53e4e6b20U,
  0x3d67d988bd8855b4U, 0x3e567de6bca22d5cU, 0xbe462335bd5d4292U, 0xbdff3c933dd834ccU,
  0xbdae3d613cb8d02eU, 0x3bade4ea3e1ebb07U, 0x3e5ae8133e1170b9U, 0x3e17b78dbe05936eU,
  0x3dfb177d3e42654eU, 0xbce237663b848e12U, 0xbe6a1c87be52c289U, 0xbdc5448f3e2f7770U,
  0x3dc814913e64600bU, 0x3e581fc13dc15fc1U, 0x3ddbc35ebdc66769U, 0x3e437cc2bda8cfbdU,
  0x3e0b3f50bd5a9563U, 0xbda2cb19bd346163U, 0xbdedeb82bda162faU, 0xbccb150ebdc8e460U,
  0xbdb267123b6d65b9U, 0xbe38b48b3d697a75U, 0xbc3b8aa33e408116U, 0x3e0638e5be338d8aU,
  0x3cb68a43bd1fa2d6U, 0xbd274d57be711d9fU, 0x3d0f4e65b94dbd18U, 0x3d094a883e1a9e7bU,
  0xbde6c44a3d52eeb5U, 0x3e07386ebdac2e7eU, 0xbe14a3873d573b0bU, 0x3dd7bdd2bd4a975aU,
  0xbcd4b2c43d41e791U, 0x3e33b9dabd3d30a6U, 0x3d09b7a6be27dd37U, 0xbdeb06313dd31a08U,
  0xbdaaa715be5775bdU, 0x3cfd0a93be5c45faU, 0x3e6f8f883de328b3U, 0x3dc3d81fbe1cb997U,
  0x3d7b7e203db1d13dU, 0x3daf72473bf72b5fU, 0x3daa4db53d97b2a4U, 0x3d8c6c073cc9d2faU,
  0x3c7bf394bc783a26U, 0x3d434edb3d0203f9U, 0x3d035add3d8f2aa8U, 0x3d8df8fc3d895aa3U,
  0xbaa700ee3d6fca4aU, 0xbb273c4d3da3e0f2U, 0x3d89cc363cbc5095U, 0x3d91aaea3d89d580U,
  0x3d803acb3d691d88U, 0x3d717f3fbb2ece18U, 0x3c9989633dc30de0U, 0x3d31293a3d99a309U,
  0x3c0c4d1dbacc694cU, 0xbccc0fae3dba3d16U, 0x3d832b9d3da05909U, 0x3d969597bd24d9afU,
  0x3c83ae9e00000000U, 0x3cd42c6c3c10f7c2U, 0xbc9019253d65f940U, 0xbbf63e3c3dea2dcfU,
  0xbc9b0e8abc2d9f46U, 0x3cd5f54d3d6edf31U, 0x3db7d319badabfe2U, 0xbbebd111bbbefffdU,
  0x3d9ae1253d2a2169U, 0x3d4586c03da3d977U, 0xbc7f77cbbcfad82fU, 0x3d5101d43cd8e86dU,
  0xbd9fc8d4bea55332U, 0xbd158a963d194e69U, 0xbe935af03e710650U, 0xbe64d142bd6a4fa1U,
  0x3b1ea1f7be8f9df1U, 0xbe651b6ebe29e29cU, 0x3ec15d7abe7656dfU, 0xbebb54303e346cb9U,
  0x3dcd6f883e91bd8aU, 0xbe592bcebeb88bc0U, 0xbe7111373e9f02ebU, 0x3dfeb7d53d1defe0U,
  0xbec892273eb36b2fU, 0xbd8fce50be4eb837U, 0x3eb292d13ea30172U, 0xbea88f07be9331fcU,
  0xbdc86b9e3dc521f2U, 0x3e5680bd3e7ce2d9U, 0xbe53b4f8be9943cdU, 0xbe8f43c23dbd734dU,
  0xbe3f60da3d7c2fc0U, 0xbeaf67cf3e478fd7U, 0x3e643e0c3ea8618eU, 0x3e2fee6abe562477U,
  0xbbf63bf0bd69f74bU, 0x3e2620463e2e87b3U, 0xbedc5057be544746U, 0xbd87418ebc239812U,
  0xbe4a2e4f3e2114bbU, 0xbe8a8bf1beb755aeU, 0x3eb1600b3e5454aaU, 0x3b27fa31bd7badcfU,
  0xbec6abafbecf461eU, 0xbdb946813ea18158U, 0xbce6aba1be787414U, 0x3e0f4a793eaf5a5bU,
  0xbdd65f483e30d221U, 0x3dc6da24bc44cc13U, 0xbea1a4c2bd54b402U, 0x3e247860bef53900U,
  0x3eb5402fbe07db42U, 0x3e8a7f82be8218dcU, 0x3e80e0f33d8aaf67U, 0xbec6f2a3be96fa43U,
  0x3e5e46dabeae1082U, 0x3d9559f33e97d0a7U, 0xbdd4d63dbeb932e4U, 0x3e1267163ebaa07fU,
  0x3e3d534f3e10b36dU, 0x3e0a9017becfd691U, 0x3e7dc999be72c698U, 0xbce99edd3db0a697U,
  0x3d6ebc753e3e1ff8U, 0x3d803b043e8222faU, 0x3e45727fbdb98414U, 0x3d3d3100bca31918U,
  0x3e7c3b7fbe183cd3U, 0xbe2cba0abca0c669U, 0xbe9a890abe505b31U, 0x3ea2eba3be61d1ccU,
  0xbee1dda9be995dbaU, 0xbe72ff7d3d56eb23U, 0x3da2b65bbe5b54fbU, 0x3eb942043e4ca3d8U,
  0xbea3012dbeaaeca5U, 0xbe5e37f43d96696bU, 0xbeba6ee2be5287beU, 0xbe8a4742bea9b8d8U,
  0xbe12b6e8be51ffc1U, 0xbeaa87013d3a2410U, 0xbe9ee546bec40ff8U, 0xbef626223d21cd43U,
  0x3e2081cfbda3b1c8U, 0x3c030e0f3ea532f3U, 0x3ea22bd9be4cdb9bU, 0x3e3c1bbabd03fe4fU,
  0xbe0bbbc33eb20984U, 0xbe82af033e8432f5U, 0xbe798013becfa46bU, 0x3ec93cf13d567a04U,
  0xbe4c9207bdf57699U, 0xbe18a9a43e5cd7adU, 0xbe97061a3e4f2118U, 0xbeb06118be6ac487U,
  0x3ec1904f3ddaadd4U, 0x3e23baba3e77e56dU, 0xbeb574cbbdd8d559U, 0xbcfc106f3e330b31U,
  0xbdb088adbe1154c7U, 0x3e9a77d5be24bbeeU, 0x3d9f97b83e3a150dU, 0xbe8bb613be49b2e8U,
  0xbeb0edd9beb4ebe8U, 0x3e66dd253e2a7b32U, 0x3ea62b943d6b9187U, 0xbe55f5cebe59122cU,
  0x3e7d459cbe873fbdU, 0x3e931aaabea2ddc0U, 0xbe3f1e84bea27eaeU, 0x3dc828e93e6bed9fU,
  0x3eaa10c13d6b446fU, 0xbeb969053ebf66fcU, 0x3e48b6fd3e13ab4eU, 0x3e6e69c7be8b3898U,
  0x3df9fd413eb158faU, 0x3e6e594dbeb3d61aU, 0xbec2cec3be4fa174U, 0xbeb3d679bea2beafU,
  0x3e8f3180bd79721aU, 0x3e7c981fbe5f2247U, 0xbe6f72553c94df64U, 0xbe3d1a8dbdbe82bbU,
  0xbe953d96be798e5cU, 0x3e88a83e3e40b078U, 0x3ce2b8cdbe356717U, 0x3d4f2429bdb8f06fU,
  0x3e9364c23e73b990U, 0xbd1b0d4fbebbc23cU, 0xbe7b0af73d9ff53bU, 0xbe43b4d2bda47512U,
  0xbe235b77be628d53U, 0x3e849013bec6458aU, 0xbec6448b3e98c874U, 0x3dad02833e601c4eU,
  0xbe88b31c3e07ff40U, 0xbe07d0b8bee539a6U, 0xbe0c302cbd97dc95U, 0xbe2b70993dfe7d84U,
  0x3d24beb33e22dd93U, 0x3e66f0abbedbfa5eU, 0x3e39e51e3ec449a5U, 0xbdf8efadbeb0fbf9U,
  0xbe2f1b43be302fc4U, 0xbed263b83cf60d8eU, 0xbe9aa6a43eb5cac3U, 0x3e6143e13de27d50U,
  0xbe1785c53be5fe47U, 0xbdc03b203d188a81U, 0xbd009943bee763b0U, 0x3d84bbcabd3b6d0cU,
  0x3e99f83b3e2e1938U, 0x3e0115e6be969e51U, 0xbe90adba3e5c272cU, 0xbe72a8d33e4598c0U,
  0xbe69021bbeb11541U, 0xbea774ae3e278f09U, 0x3e4a4c763e074fe1U, 0x3d81762ebe0333d4U,
  0xbe784fa1be15a785U, 0xbec82f21be8ac719U, 0xbe9832f8bb861f45U, 0xbe5522793e4e9c1aU,
  0x3e307b673dd05c3eU, 0xbc7aa4a1be44ef55U, 0x3e2696d3be897337U, 0x3df58f0abec16474U,
